{
  "version": "1.0",
  "truncation": {
    "direction": "Right",
    "max_length": 256,
    "strategy": "LongestFirst",
    "stride": 0
  },
  "padding": null,
  "added_tokens": [
    {
      "id": 0,
      "content": "[PAD]",
      "single_word": false,
      "lstrip": false,
      "rstrip": false,
      "normalized": false,
      "special": true
    },
    {
      "id": 1,
      "content": "[UNK]",
      "single_word": false,
      "lstrip": false,
      "rstrip": false,
      "normalized": false,
      "special": true
    },
    {
      "id": 2,
      "content": "[CLS]",
      "single_word": false,
      "lstrip": false,
      "rstrip": false,
      "normalized": false,
      "special": true
    },
    {
      "id": 3,
      "content": "[SEP]",
      "single_word": false,
      "lstrip": false,
      "rstrip": false,
      "normalized": false,
      "special": true
    },
    {
      "id": 4,
      "content": "[MASK]",
      "single_word": false,
      "lstrip": false,
      "rstrip": false,
      "normalized": false,
      "special": true
    }
  ],
  "normalizer": {
    "type": "BertNormalizer",
    "clean_text": true,
    "handle_chinese_chars": true,
    "strip_accents": null,
    "lowercase": true
  },
  "pre_tokenizer": {
    "type": "BertPreTokenizer"
  },
  "post_processor": {
    "type": "TemplateProcessing",
    "single": [
      {
        "SpecialToken": {
          "id": "[CLS]",
          "type_id": 0
        }
      },
      {
        "Sequence": {
          "id": "A",
          "type_id": 0
        }
      },
      {
        "SpecialToken": {
          "id": "[SEP]",
          "type_id": 0
        }
      }
    ],
    "pair": [
      {
        "SpecialToken": {
          "id": "[CLS]",
          "type_id": 0
        }
      },
      {
        "Sequence": {
          "id": "A",
          "type_id": 0
        }
      },
      {
        "SpecialToken": {
          "id": "[SEP]",
          "type_id": 0
        }
      },
      {
        "Sequence": {
          "id": "B",
          "type_id": 1
        }
      },
      {
        "SpecialToken": {
          "id": "[SEP]",
          "type_id": 1
        }
      }
    ],
    "special_tokens": {
      "[CLS]": {
        "id": "[CLS]",
        "ids": [
          2
        ],
        "tokens": [
          "[CLS]"
        ]
      },
      "[SEP]": {
        "id": "[SEP]",
        "ids": [
          3
        ],
        "tokens": [
          "[SEP]"
        ]
      }
    }
  },
  "decoder": {
    "type": "WordPiece",
    "prefix": "##",
    "cleanup": true
  },
  "model": {
    "type": "WordPiece",
    "unk_token": "[UNK]",
    "continuing_subword_prefix": "##",
    "max_input_chars_per_word": 100,
    "vocab": {
      "[PAD]": 0,
      "[UNK]": 1,
      "[CLS]": 2,
      "[SEP]": 3,
      "[MASK]": 4,
      "[abstract]": 5,
      "[claim]": 6,
      "[summary]": 7,
      "[invention]": 8,
      "[cpc]": 9,
      "[unused0]": 10,
      "[unused1]": 11,
      "[unused2]": 12,
      "[unused3]": 13,
      "[unused4]": 14,
      "[unused5]": 15,
      "[unused6]": 16,
      "[unused7]": 17,
      "[unused8]": 18,
      "[unused9]": 19,
      "[unused10]": 20,
      "[unused11]": 21,
      "[unused12]": 22,
      "[unused13]": 23,
      "[unused14]": 24,
      "[unused15]": 25,
      "[unused16]": 26,
      "[unused17]": 27,
      "[unused18]": 28,
      "[unused19]": 29,
      "[unused20]": 30,
      "[unused21]": 31,
      "[unused22]": 32,
      "[unused23]": 33,
      "[unused24]": 34,
      "[unused25]": 35,
      "[unused26]": 36,
      "[unused27]": 37,
      "[unused28]": 38,
      "[unused29]": 39,
      "[unused30]": 40,
      "[unused31]": 41,
      "[unused32]": 42,
      "[unused33]": 43,
      "[unused34]": 44,
      "[unused35]": 45,
      "[unused36]": 46,
      "[unused37]": 47,
      "[unused38]": 48,
      "[unused39]": 49,
      "[unused40]": 50,
      "[unused41]": 51,
      "[unused42]": 52,
      "[unused43]": 53,
      "[unused44]": 54,
      "[unused45]": 55,
      "[unused46]": 56,
      "[unused47]": 57,
      "[unused48]": 58,
      "[unused49]": 59,
      "[unused50]": 60,
      "[unused51]": 61,
      "[unused52]": 62,
      "[unused53]": 63,
      "[unused54]": 64,
      "[unused55]": 65,
      "[unused56]": 66,
      "[unused57]": 67,
      "[unused58]": 68,
      "[unused59]": 69,
      "[unused60]": 70,
      "[unused61]": 71,
      "[unused62]": 72,
      "[unused63]": 73,
      "[unused64]": 74,
      "[unused65]": 75,
      "[unused66]": 76,
      "[unused67]": 77,
      "[unused68]": 78,
      "[unused69]": 79,
      "[unused70]": 80,
      "[unused71]": 81,
      "[unused72]": 82,
      "[unused73]": 83,
      "[unused74]": 84,
      "[unused75]": 85,
      "[unused76]": 86,
      "[unused77]": 87,
      "[unused78]": 88,
      "[unused79]": 89,
      "[unused80]": 90,
      "[unused81]": 91,
      "[unused82]": 92,
      "[unused83]": 93,
      "[unused84]": 94,
      "[unused85]": 95,
      "[unused86]": 96,
      "[unused87]": 97,
      "[unused88]": 98,
      "[unused89]": 99,
      "[unused90]": 100,
      "[unused91]": 101,
      "[unused92]": 102,
      "[unused93]": 103,
      "[unused94]": 104,
      "[unused95]": 105,
      "[unused96]": 106,
      "[unused97]": 107,
      "[unused98]": 108,
      "[unused99]": 109,
      "[unused100]": 110,
      "[unused101]": 111,
      "[unused102]": 112,
      "[unused103]": 113,
      "[unused104]": 114,
      "[unused105]": 115,
      "[unused106]": 116,
      "[unused107]": 117,
      "[unused108]": 118,
      "[unused109]": 119,
      "[unused110]": 120,
      "[unused111]": 121,
      "[unused112]": 122,
      "[unused113]": 123,
      "[unused114]": 124,
      "[unused115]": 125,
      "[unused116]": 126,
      "[unused117]": 127,
      "[unused118]": 128,
      "[unused119]": 129,
      "[unused120]": 130,
      "[unused121]": 131,
      "[unused122]": 132,
      "[unused123]": 133,
      "[unused124]": 134,
      "[unused125]": 135,
      "[unused126]": 136,
      "[unused127]": 137,
      "[unused128]": 138,
      "[unused129]": 139,
      "[unused130]": 140,
      "[unused131]": 141,
      "[unused132]": 142,
      "[unused133]": 143,
      "[unused134]": 144,
      "[unused135]": 145,
      "[unused136]": 146,
      "[unused137]": 147,
      "[unused138]": 148,
      "[unused139]": 149,
      "[unused140]": 150,
      "[unused141]": 151,
      "[unused142]": 152,
      "[unused143]": 153,
      "[unused144]": 154,
      "[unused145]": 155,
      "[unused146]": 156,
      "[unused147]": 157,
      "[unused148]": 158,
      "[unused149]": 159,
      "[unused150]": 160,
      "[unused151]": 161,
      "[unused152]": 162,
      "[unused153]": 163,
      "[unused154]": 164,
      "[unused155]": 165,
      "[unused156]": 166,
      "[unused157]": 167,
      "[unused158]": 168,
      "[unused159]": 169,
      "[unused160]": 170,
      "[unused161]": 171,
      "[unused162]": 172,
      "[unused163]": 173,
      "[unused164]": 174,
      "[unused165]": 175,
      "[unused166]": 176,
      "[unused167]": 177,
      "[unused168]": 178,
      "[unused169]": 179,
      "[unused170]": 180,
      "[unused171]": 181,
      "[unused172]": 182,
      "[unused173]": 183,
      "[unused174]": 184,
      "[unused175]": 185,
      "[unused176]": 186,
      "[unused177]": 187,
      "[unused178]": 188,
      "[unused179]": 189,
      "[unused180]": 190,
      "[unused181]": 191,
      "[unused182]": 192,
      "[unused183]": 193,
      "[unused184]": 194,
      "[unused185]": 195,
      "[unused186]": 196,
      "[unused187]": 197,
      "[unused188]": 198,
      "[unused189]": 199,
      "[unused190]": 200,
      "[unused191]": 201,
      "[unused192]": 202,
      "[unused193]": 203,
      "[unused194]": 204,
      "[unused195]": 205,
      "[unused196]": 206,
      "[unused197]": 207,
      "[unused198]": 208,
      "[unused199]": 209,
      "[unused200]": 210,
      "[unused201]": 211,
      "[unused202]": 212,
      "[unused203]": 213,
      "[unused204]": 214,
      "[unused205]": 215,
      "[unused206]": 216,
      "[unused207]": 217,
      "[unused208]": 218,
      "[unused209]": 219,
      "[unused210]": 220,
      "[unused211]": 221,
      "[unused212]": 222,
      "[unused213]": 223,
      "[unused214]": 224,
      "[unused215]": 225,
      "[unused216]": 226,
      "[unused217]": 227,
      "[unused218]": 228,
      "[unused219]": 229,
      "[unused220]": 230,
      "[unused221]": 231,
      "[unused222]": 232,
      "[unused223]": 233,
      "[unused224]": 234,
      "[unused225]": 235,
      "[unused226]": 236,
      "[unused227]": 237,
      "[unused228]": 238,
      "[unused229]": 239,
      "[unused230]": 240,
      "[unused231]": 241,
      "[unused232]": 242,
      "[unused233]": 243,
      "[unused234]": 244,
      "[unused235]": 245,
      "[unused236]": 246,
      "[unused237]": 247,
      "[unused238]": 248,
      "[unused239]": 249,
      "[unused240]": 250,
      "[unused241]": 251,
      "[unused242]": 252,
      "[unused243]": 253,
      "[unused244]": 254,
      "[unused245]": 255,
      "[unused246]": 256,
      "[unused247]": 257,
      "[unused248]": 258,
      "[unused249]": 259,
      "[unused250]": 260,
      "[unused251]": 261,
      "[unused252]": 262,
      "[unused253]": 263,
      "[unused254]": 264,
      "[unused255]": 265,
      "[unused256]": 266,
      "[unused257]": 267,
      "[unused258]": 268,
      "[unused259]": 269,
      "[unused260]": 270,
      "[unused261]": 271,
      "[unused262]": 272,
      "[unused263]": 273,
      "[unused264]": 274,
      "[unused265]": 275,
      "[unused266]": 276,
      "[unused267]": 277,
      "[unused268]": 278,
      "[unused269]": 279,
      "[unused270]": 280,
      "[unused271]": 281,
      "[unused272]": 282,
      "[unused273]": 283,
      "[unused274]": 284,
      "[unused275]": 285,
      "[unused276]": 286,
      "[unused277]": 287,
      "[unused278]": 288,
      "[unused279]": 289,
      "[unused280]": 290,
      "[unused281]": 291,
      "[unused282]": 292,
      "[unused283]": 293,
      "[unused284]": 294,
      "[unused285]": 295,
      "[unused286]": 296,
      "[unused287]": 297,
      "[unused288]": 298,
      "[unused289]": 299,
      "[unused290]": 300,
      "[unused291]": 301,
      "[unused292]": 302,
      "[unused293]": 303,
      "[unused294]": 304,
      "[unused295]": 305,
      "[unused296]": 306,
      "[unused297]": 307,
      "[unused298]": 308,
      "[unused299]": 309,
      "[unused300]": 310,
      "[unused301]": 311,
      "[unused302]": 312,
      "[unused303]": 313,
      "[unused304]": 314,
      "[unused305]": 315,
      "[unused306]": 316,
      "[unused307]": 317,
      "[unused308]": 318,
      "[unused309]": 319,
      "[unused310]": 320,
      "[unused311]": 321,
      "[unused312]": 322,
      "[unused313]": 323,
      "[unused314]": 324,
      "[unused315]": 325,
      "[unused316]": 326,
      "[unused317]": 327,
      "[unused318]": 328,
      "[unused319]": 329,
      "[unused320]": 330,
      "[unused321]": 331,
      "[unused322]": 332,
      "[unused323]": 333,
      "[unused324]": 334,
      "[unused325]": 335,
      "[unused326]": 336,
      "[unused327]": 337,
      "[unused328]": 338,
      "[unused329]": 339,
      "[unused330]": 340,
      "[unused331]": 341,
      "[unused332]": 342,
      "[unused333]": 343,
      "[unused334]": 344,
      "[unused335]": 345,
      "[unused336]": 346,
      "[unused337]": 347,
      "[unused338]": 348,
      "[unused339]": 349,
      "[unused340]": 350,
      "[unused341]": 351,
      "[unused342]": 352,
      "[unused343]": 353,
      "[unused344]": 354,
      "[unused345]": 355,
      "[unused346]": 356,
      "[unused347]": 357,
      "[unused348]": 358,
      "[unused349]": 359,
      "[unused350]": 360,
      "[unused351]": 361,
      "[unused352]": 362,
      "[unused353]": 363,
      "[unused354]": 364,
      "[unused355]": 365,
      "[unused356]": 366,
      "[unused357]": 367,
      "[unused358]": 368,
      "[unused359]": 369,
      "[unused360]": 370,
      "[unused361]": 371,
      "[unused362]": 372,
      "[unused363]": 373,
      "[unused364]": 374,
      "[unused365]": 375,
      "[unused366]": 376,
      "[unused367]": 377,
      "[unused368]": 378,
      "[unused369]": 379,
      "[unused370]": 380,
      "[unused371]": 381,
      "[unused372]": 382,
      "[unused373]": 383,
      "[unused374]": 384,
      "[unused375]": 385,
      "[unused376]": 386,
      "[unused377]": 387,
      "[unused378]": 388,
      "[unused379]": 389,
      "[unused380]": 390,
      "[unused381]": 391,
      "[unused382]": 392,
      "[unused383]": 393,
      "[unused384]": 394,
      "[unused385]": 395,
      "[unused386]": 396,
      "[unused387]": 397,
      "[unused388]": 398,
      "[unused389]": 399,
      "[unused390]": 400,
      "[unused391]": 401,
      "[unused392]": 402,
      "[unused393]": 403,
      "[unused394]": 404,
      "[unused395]": 405,
      "[unused396]": 406,
      "[unused397]": 407,
      "[unused398]": 408,
      "[unused399]": 409,
      "[unused400]": 410,
      "[unused401]": 411,
      "[unused402]": 412,
      "[unused403]": 413,
      "[unused404]": 414,
      "[unused405]": 415,
      "[unused406]": 416,
      "[unused407]": 417,
      "[unused408]": 418,
      "[unused409]": 419,
      "[unused410]": 420,
      "[unused411]": 421,
      "[unused412]": 422,
      "[unused413]": 423,
      "[unused414]": 424,
      "[unused415]": 425,
      "[unused416]": 426,
      "[unused417]": 427,
      "[unused418]": 428,
      "[unused419]": 429,
      "[unused420]": 430,
      "[unused421]": 431,
      "[unused422]": 432,
      "[unused423]": 433,
      "[unused424]": 434,
      "[unused425]": 435,
      "[unused426]": 436,
      "[unused427]": 437,
      "[unused428]": 438,
      "[unused429]": 439,
      "[unused430]": 440,
      "[unused431]": 441,
      "[unused432]": 442,
      "[unused433]": 443,
      "[unused434]": 444,
      "[unused435]": 445,
      "[unused436]": 446,
      "[unused437]": 447,
      "[unused438]": 448,
      "[unused439]": 449,
      "[unused440]": 450,
      "[unused441]": 451,
      "[unused442]": 452,
      "[unused443]": 453,
      "[unused444]": 454,
      "[unused445]": 455,
      "[unused446]": 456,
      "[unused447]": 457,
      "[unused448]": 458,
      "[unused449]": 459,
      "[unused450]": 460,
      "[unused451]": 461,
      "[unused452]": 462,
      "[unused453]": 463,
      "[unused454]": 464,
      "[unused455]": 465,
      "[unused456]": 466,
      "[unused457]": 467,
      "[unused458]": 468,
      "[unused459]": 469,
      "[unused460]": 470,
      "[unused461]": 471,
      "[unused462]": 472,
      "[unused463]": 473,
      "[unused464]": 474,
      "[unused465]": 475,
      "[unused466]": 476,
      "[unused467]": 477,
      "[unused468]": 478,
      "[unused469]": 479,
      "[unused470]": 480,
      "[unused471]": 481,
      "[unused472]": 482,
      "[unused473]": 483,
      "[unused474]": 484,
      "[unused475]": 485,
      "[unused476]": 486,
      "[unused477]": 487,
      "[unused478]": 488,
      "[unused479]": 489,
      "[unused480]": 490,
      "[unused481]": 491,
      "[unused482]": 492,
      "[unused483]": 493,
      "[unused484]": 494,
      "[unused485]": 495,
      "[unused486]": 496,
      "[unused487]": 497,
      "[unused488]": 498,
      "[unused489]": 499,
      "[unused490]": 500,
      "[unused491]": 501,
      "[unused492]": 502,
      "[unused493]": 503,
      "[unused494]": 504,
      "[unused495]": 505,
      "[unused496]": 506,
      "[unused497]": 507,
      "[unused498]": 508,
      "[unused499]": 509,
      "[unused500]": 510,
      "[unused501]": 511,
      "[unused502]": 512,
      "[unused503]": 513,
      "[unused504]": 514,
      "[unused505]": 515,
      "[unused506]": 516,
      "[unused507]": 517,
      "[unused508]": 518,
      "[unused509]": 519,
      "[unused510]": 520,
      "[unused511]": 521,
      "[unused512]": 522,
      "[unused513]": 523,
      "[unused514]": 524,
      "[unused515]": 525,
      "[unused516]": 526,
      "[unused517]": 527,
      "[unused518]": 528,
      "[unused519]": 529,
      "[unused520]": 530,
      "[unused521]": 531,
      "[unused522]": 532,
      "[unused523]": 533,
      "[unused524]": 534,
      "[unused525]": 535,
      "[unused526]": 536,
      "[unused527]": 537,
      "[unused528]": 538,
      "[unused529]": 539,
      "[unused530]": 540,
      "[unused531]": 541,
      "[unused532]": 542,
      "[unused533]": 543,
      "[unused534]": 544,
      "[unused535]": 545,
      "[unused536]": 546,
      "[unused537]": 547,
      "[unused538]": 548,
      "[unused539]": 549,
      "[unused540]": 550,
      "[unused541]": 551,
      "[unused542]": 552,
      "[unused543]": 553,
      "[unused544]": 554,
      "[unused545]": 555,
      "[unused546]": 556,
      "[unused547]": 557,
      "[unused548]": 558,
      "[unused549]": 559,
      "[unused550]": 560,
      "[unused551]": 561,
      "[unused552]": 562,
      "[unused553]": 563,
      "[unused554]": 564,
      "[unused555]": 565,
      "[unused556]": 566,
      "[unused557]": 567,
      "[unused558]": 568,
      "[unused559]": 569,
      "[unused560]": 570,
      "[unused561]": 571,
      "[unused562]": 572,
      "[unused563]": 573,
      "[unused564]": 574,
      "[unused565]": 575,
      "[unused566]": 576,
      "[unused567]": 577,
      "[unused568]": 578,
      "[unused569]": 579,
      "[unused570]": 580,
      "[unused571]": 581,
      "[unused572]": 582,
      "[unused573]": 583,
      "[unused574]": 584,
      "[unused575]": 585,
      "[unused576]": 586,
      "[unused577]": 587,
      "[unused578]": 588,
      "[unused579]": 589,
      "[unused580]": 590,
      "[unused581]": 591,
      "[unused582]": 592,
      "[unused583]": 593,
      "[unused584]": 594,
      "[unused585]": 595,
      "[unused586]": 596,
      "[unused587]": 597,
      "[unused588]": 598,
      "[unused589]": 599,
      "[unused590]": 600,
      "[unused591]": 601,
      "[unused592]": 602,
      "[unused593]": 603,
      "[unused594]": 604,
      "[unused595]": 605,
      "[unused596]": 606,
      "[unused597]": 607,
      "[unused598]": 608,
      "[unused599]": 609,
      "[unused600]": 610,
      "[unused601]": 611,
      "[unused602]": 612,
      "[unused603]": 613,
      "[unused604]": 614,
      "[unused605]": 615,
      "[unused606]": 616,
      "[unused607]": 617,
      "[unused608]": 618,
      "[unused609]": 619,
      "[unused610]": 620,
      "[unused611]": 621,
      "[unused612]": 622,
      "[unused613]": 623,
      "[unused614]": 624,
      "[unused615]": 625,
      "[unused616]": 626,
      "[unused617]": 627,
      "[unused618]": 628,
      "[unused619]": 629,
      "[unused620]": 630,
      "[unused621]": 631,
      "[unused622]": 632,
      "[unused623]": 633,
      "[unused624]": 634,
      "[unused625]": 635,
      "[unused626]": 636,
      "[unused627]": 637,
      "[unused628]": 638,
      "[unused629]": 639,
      "[unused630]": 640,
      "[unused631]": 641,
      "[unused632]": 642,
      "[unused633]": 643,
      "[unused634]": 644,
      "[unused635]": 645,
      "[unused636]": 646,
      "[unused637]": 647,
      "[unused638]": 648,
      "[unused639]": 649,
      "[unused640]": 650,
      "[unused641]": 651,
      "[unused642]": 652,
      "[unused643]": 653,
      "[unused644]": 654,
      "[unused645]": 655,
      "[unused646]": 656,
      "[unused647]": 657,
      "[unused648]": 658,
      "[unused649]": 659,
      "[unused650]": 660,
      "[unused651]": 661,
      "[unused652]": 662,
      "[unused653]": 663,
      "[unused654]": 664,
      "[unused655]": 665,
      "[unused656]": 666,
      "[unused657]": 667,
      "[unused658]": 668,
      "[unused659]": 669,
      "[unused660]": 670,
      "[unused661]": 671,
      "[unused662]": 672,
      "[unused663]": 673,
      "[unused664]": 674,
      "[unused665]": 675,
      "[unused666]": 676,
      "[unused667]": 677,
      "[unused668]": 678,
      "[unused669]": 679,
      "[unused670]": 680,
      "[unused671]": 681,
      "[unused672]": 682,
      "[unused673]": 683,
      "[unused674]": 684,
      "[unused675]": 685,
      "[unused676]": 686,
      "[unused677]": 687,
      "[unused678]": 688,
      "[unused679]": 689,
      "[unused680]": 690,
      "[unused681]": 691,
      "[unused682]": 692,
      "[unused683]": 693,
      "[unused684]": 694,
      "[unused685]": 695,
      "[unused686]": 696,
      "[unused687]": 697,
      "[unused688]": 698,
      "[unused689]": 699,
      "[unused690]": 700,
      "[unused691]": 701,
      "[unused692]": 702,
      "[unused693]": 703,
      "[unused694]": 704,
      "[unused695]": 705,
      "[unused696]": 706,
      "[unused697]": 707,
      "[unused698]": 708,
      "[unused699]": 709,
      "[unused700]": 710,
      "[unused701]": 711,
      "[unused702]": 712,
      "[unused703]": 713,
      "[unused704]": 714,
      "[unused705]": 715,
      "[unused706]": 716,
      "[unused707]": 717,
      "[unused708]": 718,
      "[unused709]": 719,
      "[unused710]": 720,
      "[unused711]": 721,
      "[unused712]": 722,
      "[unused713]": 723,
      "[unused714]": 724,
      "[unused715]": 725,
      "[unused716]": 726,
      "[unused717]": 727,
      "[unused718]": 728,
      "[unused719]": 729,
      "[unused720]": 730,
      "[unused721]": 731,
      "[unused722]": 732,
      "[unused723]": 733,
      "[unused724]": 734,
      "[unused725]": 735,
      "[unused726]": 736,
      "[unused727]": 737,
      "[unused728]": 738,
      "[unused729]": 739,
      "[unused730]": 740,
      "[unused731]": 741,
      "[unused732]": 742,
      "[unused733]": 743,
      "[unused734]": 744,
      "[unused735]": 745,
      "[unused736]": 746,
      "[unused737]": 747,
      "[unused738]": 748,
      "[unused739]": 749,
      "[unused740]": 750,
      "[unused741]": 751,
      "[unused742]": 752,
      "[unused743]": 753,
      "[unused744]": 754,
      "[unused745]": 755,
      "[unused746]": 756,
      "[unused747]": 757,
      "[unused748]": 758,
      "[unused749]": 759,
      "[unused750]": 760,
      "[unused751]": 761,
      "[unused752]": 762,
      "[unused753]": 763,
      "[unused754]": 764,
      "[unused755]": 765,
      "[unused756]": 766,
      "[unused757]": 767,
      "[unused758]": 768,
      "[unused759]": 769,
      "[unused760]": 770,
      "[unused761]": 771,
      "[unused762]": 772,
      "[unused763]": 773,
      "[unused764]": 774,
      "[unused765]": 775,
      "[unused766]": 776,
      "[unused767]": 777,
      "[unused768]": 778,
      "[unused769]": 779,
      "[unused770]": 780,
      "[unused771]": 781,
      "[unused772]": 782,
      "[unused773]": 783,
      "[unused774]": 784,
      "[unused775]": 785,
      "[unused776]": 786,
      "[unused777]": 787,
      "[unused778]": 788,
      "[unused779]": 789,
      "[unused780]": 790,
      "[unused781]": 791,
      "[unused782]": 792,
      "[unused783]": 793,
      "[unused784]": 794,
      "[unused785]": 795,
      "[unused786]": 796,
      "[unused787]": 797,
      "[unused788]": 798,
      "[unused789]": 799,
      "[unused790]": 800,
      "[unused791]": 801,
      "[unused792]": 802,
      "[unused793]": 803,
      "[unused794]": 804,
      "[unused795]": 805,
      "[unused796]": 806,
      "[unused797]": 807,
      "[unused798]": 808,
      "[unused799]": 809,
      "[unused800]": 810,
      "[unused801]": 811,
      "[unused802]": 812,
      "[unused803]": 813,
      "[unused804]": 814,
      "[unused805]": 815,
      "[unused806]": 816,
      "[unused807]": 817,
      "[unused808]": 818,
      "[unused809]": 819,
      "[unused810]": 820,
      "[unused811]": 821,
      "[unused812]": 822,
      "[unused813]": 823,
      "[unused814]": 824,
      "[unused815]": 825,
      "[unused816]": 826,
      "[unused817]": 827,
      "[unused818]": 828,
      "[unused819]": 829,
      "[unused820]": 830,
      "[unused821]": 831,
      "[unused822]": 832,
      "[unused823]": 833,
      "[unused824]": 834,
      "[unused825]": 835,
      "[unused826]": 836,
      "[unused827]": 837,
      "[unused828]": 838,
      "[unused829]": 839,
      "[unused830]": 840,
      "[unused831]": 841,
      "[unused832]": 842,
      "[unused833]": 843,
      "[unused834]": 844,
      "[unused835]": 845,
      "[unused836]": 846,
      "[unused837]": 847,
      "[unused838]": 848,
      "[unused839]": 849,
      "[unused840]": 850,
      "[unused841]": 851,
      "[unused842]": 852,
      "[unused843]": 853,
      "[unused844]": 854,
      "[unused845]": 855,
      "[unused846]": 856,
      "[unused847]": 857,
      "[unused848]": 858,
      "[unused849]": 859,
      "[unused850]": 860,
      "[unused851]": 861,
      "[unused852]": 862,
      "[unused853]": 863,
      "[unused854]": 864,
      "[unused855]": 865,
      "[unused856]": 866,
      "[unused857]": 867,
      "[unused858]": 868,
      "[unused859]": 869,
      "[unused860]": 870,
      "[unused861]": 871,
      "[unused862]": 872,
      "[unused863]": 873,
      "[unused864]": 874,
      "[unused865]": 875,
      "[unused866]": 876,
      "[unused867]": 877,
      "[unused868]": 878,
      "[unused869]": 879,
      "[unused870]": 880,
      "[unused871]": 881,
      "[unused872]": 882,
      "[unused873]": 883,
      "[unused874]": 884,
      "[unused875]": 885,
      "[unused876]": 886,
      "[unused877]": 887,
      "[unused878]": 888,
      "[unused879]": 889,
      "[unused880]": 890,
      "[unused881]": 891,
      "[unused882]": 892,
      "[unused883]": 893,
      "[unused884]": 894,
      "[unused885]": 895,
      "[unused886]": 896,
      "[unused887]": 897,
      "[unused888]": 898,
      "[unused889]": 899,
      "[unused890]": 900,
      "[unused891]": 901,
      "[unused892]": 902,
      "[unused893]": 903,
      "[unused894]": 904,
      "[unused895]": 905,
      "[unused896]": 906,
      "[unused897]": 907,
      "[unused898]": 908,
      "[unused899]": 909,
      "[unused900]": 910,
      "[unused901]": 911,
      "[unused902]": 912,
      "[unused903]": 913,
      "[unused904]": 914,
      "[unused905]": 915,
      "[unused906]": 916,
      "[unused907]": 917,
      "[unused908]": 918,
      "[unused909]": 919,
      "[unused910]": 920,
      "[unused911]": 921,
      "[unused912]": 922,
      "[unused913]": 923,
      "[unused914]": 924,
      "[unused915]": 925,
      "[unused916]": 926,
      "[unused917]": 927,
      "[unused918]": 928,
      "[unused919]": 929,
      "[unused920]": 930,
      "[unused921]": 931,
      "[unused922]": 932,
      "[unused923]": 933,
      "[unused924]": 934,
      "[unused925]": 935,
      "[unused926]": 936,
      "[unused927]": 937,
      "[unused928]": 938,
      "[unused929]": 939,
      "[unused930]": 940,
      "[unused931]": 941,
      "[unused932]": 942,
      "[unused933]": 943,
      "[unused934]": 944,
      "[unused935]": 945,
      "[unused936]": 946,
      "[unused937]": 947,
      "[unused938]": 948,
      "[unused939]": 949,
      "[unused940]": 950,
      "[unused941]": 951,
      "[unused942]": 952,
      "[unused943]": 953,
      "[unused944]": 954,
      "[unused945]": 955,
      "[unused946]": 956,
      "[unused947]": 957,
      "[unused948]": 958,
      "[unused949]": 959,
      "[unused950]": 960,
      "[unused951]": 961,
      "[unused952]": 962,
      "[unused953]": 963,
      "[unused954]": 964,
      "[unused955]": 965,
      "[unused956]": 966,
      "[unused957]": 967,
      "[unused958]": 968,
      "[unused959]": 969,
      "[unused960]": 970,
      "[unused961]": 971,
      "[unused962]": 972,
      "[unused963]": 973,
      "[unused964]": 974,
      "[unused965]": 975,
      "[unused966]": 976,
      "[unused967]": 977,
      "[unused968]": 978,
      "[unused969]": 979,
      "[unused970]": 980,
      "[unused971]": 981,
      "[unused972]": 982,
      "[unused973]": 983,
      "[unused974]": 984,
      "[unused975]": 985,
      "[unused976]": 986,
      "[unused977]": 987,
      "[unused978]": 988,
      "[unused979]": 989,
      "[unused980]": 990,
      "[unused981]": 991,
      "[unused982]": 992,
      "[unused983]": 993,
      "[unused984]": 994,
      "[unused985]": 995,
      "[unused986]": 996,
      "[unused987]": 997,
      "[unused988]": 998,
      "[unused989]": 999,
      "[unused990]": 1000,
      "[unused991]": 1001,
      "[unused992]": 1002,
      "[unused993]": 1003,
      "!": 1004,
      "\"": 1005,
      "#": 1006,
      "$": 1007,
      "%": 1008,
      "&": 1009,
      "'": 1010,
      "(": 1011,
      ")": 1012,
      "*": 1013,
      "+": 1014,
      ",": 1015,
      "-": 1016,
      ".": 1017,
      "/": 1018,
      "0": 1019,
      "1": 1020,
      "2": 1021,
      "3": 1022,
      "4": 1023,
      "5": 1024,
      "6": 1025,
      "7": 1026,
      "8": 1027,
      "9": 1028,
      ":": 1029,
      ";": 1030,
      "<": 1031,
      "=": 1032,
      ">": 1033,
      "?": 1034,
      "@": 1035,
      "[": 1036,
      "\\": 1037,
      "]": 1038,
      "^": 1039,
      "_": 1040,
      "`": 1041,
      "a": 1042,
      "b": 1043,
      "c": 1044,
      "d": 1045,
      "e": 1046,
      "f": 1047,
      "g": 1048,
      "h": 1049,
      "i": 1050,
      "j": 1051,
      "k": 1052,
      "l": 1053,
      "m": 1054,
      "n": 1055,
      "o": 1056,
      "p": 1057,
      "q": 1058,
      "r": 1059,
      "s": 1060,
      "t": 1061,
      "u": 1062,
      "v": 1063,
      "w": 1064,
      "x": 1065,
      "y": 1066,
      "z": 1067,
      "{": 1068,
      "|": 1069,
      "}": 1070,
      "~": 1071,
      "¡": 1072,
      "¢": 1073,
      "£": 1074,
      "¤": 1075,
      "¥": 1076,
      "¦": 1077,
      "§": 1078,
      "¨": 1079,
      "©": 1080,
      "ª": 1081,
      "«": 1082,
      "¬": 1083,
      "®": 1084,
      "°": 1085,
      "±": 1086,
      "²": 1087,
      "³": 1088,
      "´": 1089,
      "µ": 1090,
      "¶": 1091,
      "·": 1092,
      "¹": 1093,
      "º": 1094,
      "»": 1095,
      "¼": 1096,
      "½": 1097,
      "¾": 1098,
      "¿": 1099,
      "×": 1100,
      "ß": 1101,
      "æ": 1102,
      "ð": 1103,
      "÷": 1104,
      "ø": 1105,
      "þ": 1106,
      "đ": 1107,
      "ħ": 1108,
      "ı": 1109,
      "ł": 1110,
      "ŋ": 1111,
      "œ": 1112,
      "ƒ": 1113,
      "ɐ": 1114,
      "ɑ": 1115,
      "ɒ": 1116,
      "ɔ": 1117,
      "ɕ": 1118,
      "ə": 1119,
      "ɛ": 1120,
      "ɡ": 1121,
      "ɣ": 1122,
      "ɨ": 1123,
      "ɪ": 1124,
      "ɫ": 1125,
      "ɬ": 1126,
      "ɯ": 1127,
      "ɲ": 1128,
      "ɴ": 1129,
      "ɹ": 1130,
      "ɾ": 1131,
      "ʀ": 1132,
      "ʁ": 1133,
      "ʂ": 1134,
      "ʃ": 1135,
      "ʉ": 1136,
      "ʊ": 1137,
      "ʋ": 1138,
      "ʌ": 1139,
      "ʎ": 1140,
      "ʐ": 1141,
      "ʑ": 1142,
      "ʒ": 1143,
      "ʔ": 1144,
      "ʰ": 1145,
      "ʲ": 1146,
      "ʳ": 1147,
      "ʷ": 1148,
      "ʸ": 1149,
      "ʻ": 1150,
      "ʼ": 1151,
      "ʾ": 1152,
      "ʿ": 1153,
      "ˈ": 1154,
      "ː": 1155,
      "ˡ": 1156,
      "ˢ": 1157,
      "ˣ": 1158,
      "ˤ": 1159,
      "α": 1160,
      "β": 1161,
      "γ": 1162,
      "δ": 1163,
      "ε": 1164,
      "ζ": 1165,
      "η": 1166,
      "θ": 1167,
      "ι": 1168,
      "κ": 1169,
      "λ": 1170,
      "μ": 1171,
      "ν": 1172,
      "ξ": 1173,
      "ο": 1174,
      "π": 1175,
      "ρ": 1176,
      "ς": 1177,
      "σ": 1178,
      "τ": 1179,
      "υ": 1180,
      "φ": 1181,
      "χ": 1182,
      "ψ": 1183,
      "ω": 1184,
      "а": 1185,
      "б": 1186,
      "в": 1187,
      "г": 1188,
      "д": 1189,
      "е": 1190,
      "ж": 1191,
      "з": 1192,
      "и": 1193,
      "к": 1194,
      "л": 1195,
      "м": 1196,
      "н": 1197,
      "о": 1198,
      "п": 1199,
      "р": 1200,
      "с": 1201,
      "т": 1202,
      "у": 1203,
      "ф": 1204,
      "х": 1205,
      "ц": 1206,
      "ч": 1207,
      "ш": 1208,
      "щ": 1209,
      "ъ": 1210,
      "ы": 1211,
      "ь": 1212,
      "э": 1213,
      "ю": 1214,
      "я": 1215,
      "ђ": 1216,
      "є": 1217,
      "і": 1218,
      "ј": 1219,
      "љ": 1220,
      "њ": 1221,
      "ћ": 1222,
      "ӏ": 1223,
      "ա": 1224,
      "բ": 1225,
      "գ": 1226,
      "դ": 1227,
      "ե": 1228,
      "թ": 1229,
      "ի": 1230,
      "լ": 1231,
      "կ": 1232,
      "հ": 1233,
      "մ": 1234,
      "յ": 1235,
      "ն": 1236,
      "ո": 1237,
      "պ": 1238,
      "ս": 1239,
      "վ": 1240,
      "տ": 1241,
      "ր": 1242,
      "ւ": 1243,
      "ք": 1244,
      "־": 1245,
      "א": 1246,
      "ב": 1247,
      "ג": 1248,
      "ד": 1249,
      "ה": 1250,
      "ו": 1251,
      "ז": 1252,
      "ח": 1253,
      "ט": 1254,
      "י": 1255,
      "ך": 1256,
      "כ": 1257,
      "ל": 1258,
      "ם": 1259,
      "מ": 1260,
      "ן": 1261,
      "נ": 1262,
      "ס": 1263,
      "ע": 1264,
      "ף": 1265,
      "פ": 1266,
      "ץ": 1267,
      "צ": 1268,
      "ק": 1269,
      "ר": 1270,
      "ש": 1271,
      "ת": 1272,
      "،": 1273,
      "ء": 1274,
      "ا": 1275,
      "ب": 1276,
      "ة": 1277,
      "ت": 1278,
      "ث": 1279,
      "ج": 1280,
      "ح": 1281,
      "خ": 1282,
      "د": 1283,
      "ذ": 1284,
      "ر": 1285,
      "ز": 1286,
      "س": 1287,
      "ش": 1288,
      "ص": 1289,
      "ض": 1290,
      "ط": 1291,
      "ظ": 1292,
      "ع": 1293,
      "غ": 1294,
      "ـ": 1295,
      "ف": 1296,
      "ق": 1297,
      "ك": 1298,
      "ل": 1299,
      "م": 1300,
      "ن": 1301,
      "ه": 1302,
      "و": 1303,
      "ى": 1304,
      "ي": 1305,
      "ٹ": 1306,
      "پ": 1307,
      "چ": 1308,
      "ک": 1309,
      "گ": 1310,
      "ں": 1311,
      "ھ": 1312,
      "ہ": 1313,
      "ی": 1314,
      "ے": 1315,
      "अ": 1316,
      "आ": 1317,
      "उ": 1318,
      "ए": 1319,
      "क": 1320,
      "ख": 1321,
      "ग": 1322,
      "च": 1323,
      "ज": 1324,
      "ट": 1325,
      "ड": 1326,
      "ण": 1327,
      "त": 1328,
      "थ": 1329,
      "द": 1330,
      "ध": 1331,
      "न": 1332,
      "प": 1333,
      "ब": 1334,
      "भ": 1335,
      "म": 1336,
      "य": 1337,
      "र": 1338,
      "ल": 1339,
      "व": 1340,
      "श": 1341,
      "ष": 1342,
      "स": 1343,
      "ह": 1344,
      "ा": 1345,
      "ि": 1346,
      "ी": 1347,
      "ो": 1348,
      "।": 1349,
      "॥": 1350,
      "ং": 1351,
      "অ": 1352,
      "আ": 1353,
      "ই": 1354,
      "উ": 1355,
      "এ": 1356,
      "ও": 1357,
      "ক": 1358,
      "খ": 1359,
      "গ": 1360,
      "চ": 1361,
      "ছ": 1362,
      "জ": 1363,
      "ট": 1364,
      "ড": 1365,
      "ণ": 1366,
      "ত": 1367,
      "থ": 1368,
      "দ": 1369,
      "ধ": 1370,
      "ন": 1371,
      "প": 1372,
      "ব": 1373,
      "ভ": 1374,
      "ম": 1375,
      "য": 1376,
      "র": 1377,
      "ল": 1378,
      "শ": 1379,
      "ষ": 1380,
      "স": 1381,
      "হ": 1382,
      "া": 1383,
      "ি": 1384,
      "ী": 1385,
      "ে": 1386,
      "க": 1387,
      "ச": 1388,
      "ட": 1389,
      "த": 1390,
      "ந": 1391,
      "ன": 1392,
      "ப": 1393,
      "ம": 1394,
      "ய": 1395,
      "ர": 1396,
      "ல": 1397,
      "ள": 1398,
      "வ": 1399,
      "ா": 1400,
      "ி": 1401,
      "ு": 1402,
      "ே": 1403,
      "ை": 1404,
      "ನ": 1405,
      "ರ": 1406,
      "ಾ": 1407,
      "ක": 1408,
      "ය": 1409,
      "ර": 1410,
      "ල": 1411,
      "ව": 1412,
      "ා": 1413,
      "ก": 1414,
      "ง": 1415,
      "ต": 1416,
      "ท": 1417,
      "น": 1418,
      "พ": 1419,
      "ม": 1420,
      "ย": 1421,
      "ร": 1422,
      "ล": 1423,
      "ว": 1424,
      "ส": 1425,
      "อ": 1426,
      "า": 1427,
      "เ": 1428,
      "་": 1429,
      "།": 1430,
      "ག": 1431,
      "ང": 1432,
      "ད": 1433,
      "ན": 1434,
      "པ": 1435,
      "བ": 1436,
      "མ": 1437,
      "འ": 1438,
      "ར": 1439,
      "ལ": 1440,
      "ས": 1441,
      "မ": 1442,
      "ა": 1443,
      "ბ": 1444,
      "გ": 1445,
      "დ": 1446,
      "ე": 1447,
      "ვ": 1448,
      "თ": 1449,
      "ი": 1450,
      "კ": 1451,
      "ლ": 1452,
      "მ": 1453,
      "ნ": 1454,
      "ო": 1455,
      "რ": 1456,
      "ს": 1457,
      "ტ": 1458,
      "უ": 1459,
      "ᄀ": 1460,
      "ᄂ": 1461,
      "ᄃ": 1462,
      "ᄅ": 1463,
      "ᄆ": 1464,
      "ᄇ": 1465,
      "ᄉ": 1466,
      "ᄊ": 1467,
      "ᄋ": 1468,
      "ᄌ": 1469,
      "ᄎ": 1470,
      "ᄏ": 1471,
      "ᄐ": 1472,
      "ᄑ": 1473,
      "ᄒ": 1474,
      "ᅡ": 1475,
      "ᅢ": 1476,
      "ᅥ": 1477,
      "ᅦ": 1478,
      "ᅧ": 1479,
      "ᅩ": 1480,
      "ᅪ": 1481,
      "ᅭ": 1482,
      "ᅮ": 1483,
      "ᅯ": 1484,
      "ᅲ": 1485,
      "ᅳ": 1486,
      "ᅴ": 1487,
      "ᅵ": 1488,
      "ᆨ": 1489,
      "ᆫ": 1490,
      "ᆯ": 1491,
      "ᆷ": 1492,
      "ᆸ": 1493,
      "ᆼ": 1494,
      "ᴬ": 1495,
      "ᴮ": 1496,
      "ᴰ": 1497,
      "ᴵ": 1498,
      "ᴺ": 1499,
      "ᵀ": 1500,
      "ᵃ": 1501,
      "ᵇ": 1502,
      "ᵈ": 1503,
      "ᵉ": 1504,
      "ᵍ": 1505,
      "ᵏ": 1506,
      "ᵐ": 1507,
      "ᵒ": 1508,
      "ᵖ": 1509,
      "ᵗ": 1510,
      "ᵘ": 1511,
      "ᵢ": 1512,
      "ᵣ": 1513,
      "ᵤ": 1514,
      "ᵥ": 1515,
      "ᶜ": 1516,
      "ᶠ": 1517,
      "‐": 1518,
      "‑": 1519,
      "‒": 1520,
      "–": 1521,
      "—": 1522,
      "―": 1523,
      "‖": 1524,
      "‘": 1525,
      "’": 1526,
      "‚": 1527,
      "“": 1528,
      "”": 1529,
      "„": 1530,
      "†": 1531,
      "‡": 1532,
      "•": 1533,
      "…": 1534,
      "‰": 1535,
      "′": 1536,
      "″": 1537,
      "›": 1538,
      "‿": 1539,
      "⁄": 1540,
      "⁰": 1541,
      "ⁱ": 1542,
      "⁴": 1543,
      "⁵": 1544,
      "⁶": 1545,
      "⁷": 1546,
      "⁸": 1547,
      "⁹": 1548,
      "⁺": 1549,
      "⁻": 1550,
      "ⁿ": 1551,
      "₀": 1552,
      "₁": 1553,
      "₂": 1554,
      "₃": 1555,
      "₄": 1556,
      "₅": 1557,
      "₆": 1558,
      "₇": 1559,
      "₈": 1560,
      "₉": 1561,
      "₊": 1562,
      "₍": 1563,
      "₎": 1564,
      "ₐ": 1565,
      "ₑ": 1566,
      "ₒ": 1567,
      "ₓ": 1568,
      "ₕ": 1569,
      "ₖ": 1570,
      "ₗ": 1571,
      "ₘ": 1572,
      "ₙ": 1573,
      "ₚ": 1574,
      "ₛ": 1575,
      "ₜ": 1576,
      "₤": 1577,
      "₩": 1578,
      "€": 1579,
      "₱": 1580,
      "₹": 1581,
      "ℓ": 1582,
      "№": 1583,
      "ℝ": 1584,
      "™": 1585,
      "⅓": 1586,
      "⅔": 1587,
      "←": 1588,
      "↑": 1589,
      "→": 1590,
      "↓": 1591,
      "↔": 1592,
      "↦": 1593,
      "⇄": 1594,
      "⇌": 1595,
      "⇒": 1596,
      "∂": 1597,
      "∅": 1598,
      "∆": 1599,
      "∇": 1600,
      "∈": 1601,
      "−": 1602,
      "∗": 1603,
      "∘": 1604,
      "√": 1605,
      "∞": 1606,
      "∧": 1607,
      "∨": 1608,
      "∩": 1609,
      "∪": 1610,
      "≈": 1611,
      "≡": 1612,
      "≤": 1613,
      "≥": 1614,
      "⊂": 1615,
      "⊆": 1616,
      "⊕": 1617,
      "⊗": 1618,
      "⋅": 1619,
      "─": 1620,
      "│": 1621,
      "■": 1622,
      "▪": 1623,
      "●": 1624,
      "★": 1625,
      "☆": 1626,
      "☉": 1627,
      "♠": 1628,
      "♣": 1629,
      "♥": 1630,
      "♦": 1631,
      "♭": 1632,
      "♯": 1633,
      "⟨": 1634,
      "⟩": 1635,
      "ⱼ": 1636,
      "⽥": 1637,
      "、": 1638,
      "。": 1639,
      "〈": 1640,
      "〉": 1641,
      "《": 1642,
      "》": 1643,
      "「": 1644,
      "」": 1645,
      "『": 1646,
      "』": 1647,
      "〜": 1648,
      "ﬁ": 1649,
      "ﬂ": 1650,
      "！": 1651,
      "（": 1652,
      "）": 1653,
      "，": 1654,
      "－": 1655,
      "．": 1656,
      "／": 1657,
      "：": 1658,
      "？": 1659,
      "～": 1660,
      "the": 1661,
      "of": 1662,
      "and": 1663,
      "in": 1664,
      "to": 1665,
      "was": 1666,
      "he": 1667,
      "is": 1668,
      "as": 1669,
      "for": 1670,
      "on": 1671,
      "with": 1672,
      "that": 1673,
      "it": 1674,
      "his": 1675,
      "by": 1676,
      "at": 1677,
      "from": 1678,
      "her": 1679,
      "##s": 1680,
      "she": 1681,
      "you": 1682,
      "had": 1683,
      "an": 1684,
      "were": 1685,
      "but": 1686,
      "be": 1687,
      "this": 1688,
      "are": 1689,
      "not": 1690,
      "my": 1691,
      "they": 1692,
      "one": 1693,
      "which": 1694,
      "or": 1695,
      "have": 1696,
      "him": 1697,
      "me": 1698,
      "first": 1699,
      "all": 1700,
      "also": 1701,
      "their": 1702,
      "has": 1703,
      "up": 1704,
      "who": 1705,
      "out": 1706,
      "been": 1707,
      "when": 1708,
      "after": 1709,
      "there": 1710,
      "into": 1711,
      "new": 1712,
      "two": 1713,
      "its": 1714,
      "##a": 1715,
      "time": 1716,
      "would": 1717,
      "no": 1718,
      "what": 1719,
      "about": 1720,
      "said": 1721,
      "we": 1722,
      "over": 1723,
      "then": 1724,
      "other": 1725,
      "so": 1726,
      "more": 1727,
      "##e": 1728,
      "can": 1729,
      "if": 1730,
      "like": 1731,
      "back": 1732,
      "them": 1733,
      "only": 1734,
      "some": 1735,
      "could": 1736,
      "##i": 1737,
      "where": 1738,
      "just": 1739,
      "##ing": 1740,
      "during": 1741,
      "before": 1742,
      "##n": 1743,
      "do": 1744,
      "##o": 1745,
      "made": 1746,
      "school": 1747,
      "through": 1748,
      "than": 1749,
      "now": 1750,
      "years": 1751,
      "most": 1752,
      "world": 1753,
      "may": 1754,
      "between": 1755,
      "down": 1756,
      "well": 1757,
      "three": 1758,
      "##d": 1759,
      "year": 1760,
      "while": 1761,
      "will": 1762,
      "##ed": 1763,
      "##r": 1764,
      "##y": 1765,
      "later": 1766,
      "##t": 1767,
      "city": 1768,
      "under": 1769,
      "around": 1770,
      "did": 1771,
      "such": 1772,
      "being": 1773,
      "used": 1774,
      "state": 1775,
      "people": 1776,
      "part": 1777,
      "know": 1778,
      "against": 1779,
      "your": 1780,
      "many": 1781,
      "second": 1782,
      "university": 1783,
      "both": 1784,
      "national": 1785,
      "##er": 1786,
      "these": 1787,
      "don": 1788,
      "known": 1789,
      "off": 1790,
      "way": 1791,
      "until": 1792,
      "re": 1793,
      "how": 1794,
      "even": 1795,
      "get": 1796,
      "head": 1797,
      "...": 1798,
      "didn": 1799,
      "##ly": 1800,
      "team": 1801,
      "american": 1802,
      "because": 1803,
      "de": 1804,
      "##l": 1805,
      "born": 1806,
      "united": 1807,
      "film": 1808,
      "since": 1809,
      "still": 1810,
      "long": 1811,
      "work": 1812,
      "south": 1813,
      "us": 1814,
      "became": 1815,
      "any": 1816,
      "high": 1817,
      "again": 1818,
      "day": 1819,
      "family": 1820,
      "see": 1821,
      "right": 1822,
      "man": 1823,
      "eyes": 1824,
      "house": 1825,
      "season": 1826,
      "war": 1827,
      "states": 1828,
      "including": 1829,
      "took": 1830,
      "life": 1831,
      "north": 1832,
      "same": 1833,
      "each": 1834,
      "called": 1835,
      "name": 1836,
      "much": 1837,
      "place": 1838,
      "however": 1839,
      "go": 1840,
      "four": 1841,
      "group": 1842,
      "another": 1843,
      "found": 1844,
      "won": 1845,
      "area": 1846,
      "here": 1847,
      "going": 1848,
      "10": 1849,
      "away": 1850,
      "series": 1851,
      "left": 1852,
      "home": 1853,
      "music": 1854,
      "best": 1855,
      "make": 1856,
      "hand": 1857,
      "number": 1858,
      "company": 1859,
      "several": 1860,
      "never": 1861,
      "last": 1862,
      "john": 1863,
      "000": 1864,
      "very": 1865,
      "album": 1866,
      "take": 1867,
      "end": 1868,
      "good": 1869,
      "too": 1870,
      "following": 1871,
      "released": 1872,
      "game": 1873,
      "played": 1874,
      "little": 1875,
      "began": 1876,
      "district": 1877,
      "##m": 1878,
      "old": 1879,
      "want": 1880,
      "those": 1881,
      "side": 1882,
      "held": 1883,
      "own": 1884,
      "early": 1885,
      "county": 1886,
      "ll": 1887,
      "league": 1888,
      "use": 1889,
      "west": 1890,
      "##u": 1891,
      "face": 1892,
      "think": 1893,
      "##es": 1894,
      "2010": 1895,
      "government": 1896,
      "##h": 1897,
      "march": 1898,
      "came": 1899,
      "small": 1900,
      "general": 1901,
      "town": 1902,
      "june": 1903,
      "##on": 1904,
      "line": 1905,
      "based": 1906,
      "something": 1907,
      "##k": 1908,
      "september": 1909,
      "thought": 1910,
      "looked": 1911,
      "along": 1912,
      "international": 1913,
      "2011": 1914,
      "air": 1915,
      "july": 1916,
      "club": 1917,
      "went": 1918,
      "january": 1919,
      "october": 1920,
      "our": 1921,
      "august": 1922,
      "april": 1923,
      "york": 1924,
      "12": 1925,
      "few": 1926,
      "2012": 1927,
      "2008": 1928,
      "east": 1929,
      "show": 1930,
      "member": 1931,
      "college": 1932,
      "2009": 1933,
      "father": 1934,
      "public": 1935,
      "##us": 1936,
      "come": 1937,
      "men": 1938,
      "five": 1939,
      "set": 1940,
      "station": 1941,
      "church": 1942,
      "##c": 1943,
      "next": 1944,
      "former": 1945,
      "november": 1946,
      "room": 1947,
      "party": 1948,
      "located": 1949,
      "december": 1950,
      "2013": 1951,
      "age": 1952,
      "got": 1953,
      "2007": 1954,
      "##g": 1955,
      "system": 1956,
      "let": 1957,
      "love": 1958,
      "2006": 1959,
      "though": 1960,
      "every": 1961,
      "2014": 1962,
      "look": 1963,
      "song": 1964,
      "water": 1965,
      "century": 1966,
      "without": 1967,
      "body": 1968,
      "black": 1969,
      "night": 1970,
      "within": 1971,
      "great": 1972,
      "women": 1973,
      "single": 1974,
      "ve": 1975,
      "building": 1976,
      "large": 1977,
      "population": 1978,
      "river": 1979,
      "named": 1980,
      "band": 1981,
      "white": 1982,
      "started": 1983,
      "##an": 1984,
      "once": 1985,
      "15": 1986,
      "20": 1987,
      "should": 1988,
      "18": 1989,
      "2015": 1990,
      "service": 1991,
      "top": 1992,
      "built": 1993,
      "british": 1994,
      "open": 1995,
      "death": 1996,
      "king": 1997,
      "moved": 1998,
      "local": 1999,
      "times": 2000,
      "children": 2001,
      "february": 2002,
      "book": 2003,
      "why": 2004,
      "11": 2005,
      "door": 2006,
      "need": 2007,
      "president": 2008,
      "order": 2009,
      "final": 2010,
      "road": 2011,
      "wasn": 2012,
      "although": 2013,
      "due": 2014,
      "major": 2015,
      "died": 2016,
      "village": 2017,
      "third": 2018,
      "knew": 2019,
      "2016": 2020,
      "asked": 2021,
      "turned": 2022,
      "st": 2023,
      "wanted": 2024,
      "say": 2025,
      "##p": 2026,
      "together": 2027,
      "received": 2028,
      "main": 2029,
      "son": 2030,
      "served": 2031,
      "different": 2032,
      "##en": 2033,
      "behind": 2034,
      "himself": 2035,
      "felt": 2036,
      "members": 2037,
      "power": 2038,
      "football": 2039,
      "law": 2040,
      "voice": 2041,
      "play": 2042,
      "##in": 2043,
      "near": 2044,
      "park": 2045,
      "history": 2046,
      "30": 2047,
      "having": 2048,
      "2005": 2049,
      "16": 2050,
      "##man": 2051,
      "saw": 2052,
      "mother": 2053,
      "##al": 2054,
      "army": 2055,
      "point": 2056,
      "front": 2057,
      "help": 2058,
      "english": 2059,
      "street": 2060,
      "art": 2061,
      "late": 2062,
      "hands": 2063,
      "games": 2064,
      "award": 2065,
      "##ia": 2066,
      "young": 2067,
      "14": 2068,
      "put": 2069,
      "published": 2070,
      "country": 2071,
      "division": 2072,
      "across": 2073,
      "told": 2074,
      "13": 2075,
      "often": 2076,
      "ever": 2077,
      "french": 2078,
      "london": 2079,
      "center": 2080,
      "six": 2081,
      "red": 2082,
      "2017": 2083,
      "led": 2084,
      "days": 2085,
      "include": 2086,
      "light": 2087,
      "25": 2088,
      "find": 2089,
      "tell": 2090,
      "among": 2091,
      "species": 2092,
      "really": 2093,
      "according": 2094,
      "central": 2095,
      "half": 2096,
      "2004": 2097,
      "form": 2098,
      "original": 2099,
      "gave": 2100,
      "office": 2101,
      "making": 2102,
      "enough": 2103,
      "lost": 2104,
      "full": 2105,
      "opened": 2106,
      "must": 2107,
      "included": 2108,
      "live": 2109,
      "given": 2110,
      "german": 2111,
      "player": 2112,
      "run": 2113,
      "business": 2114,
      "woman": 2115,
      "community": 2116,
      "cup": 2117,
      "might": 2118,
      "million": 2119,
      "land": 2120,
      "2000": 2121,
      "court": 2122,
      "development": 2123,
      "17": 2124,
      "short": 2125,
      "round": 2126,
      "ii": 2127,
      "km": 2128,
      "seen": 2129,
      "class": 2130,
      "story": 2131,
      "always": 2132,
      "become": 2133,
      "sure": 2134,
      "research": 2135,
      "almost": 2136,
      "director": 2137,
      "council": 2138,
      "la": 2139,
      "##2": 2140,
      "career": 2141,
      "things": 2142,
      "using": 2143,
      "island": 2144,
      "##z": 2145,
      "couldn": 2146,
      "car": 2147,
      "##is": 2148,
      "24": 2149,
      "close": 2150,
      "force": 2151,
      "##1": 2152,
      "better": 2153,
      "free": 2154,
      "support": 2155,
      "control": 2156,
      "field": 2157,
      "students": 2158,
      "2003": 2159,
      "education": 2160,
      "married": 2161,
      "##b": 2162,
      "nothing": 2163,
      "worked": 2164,
      "others": 2165,
      "record": 2166,
      "big": 2167,
      "inside": 2168,
      "level": 2169,
      "anything": 2170,
      "continued": 2171,
      "give": 2172,
      "james": 2173,
      "##3": 2174,
      "military": 2175,
      "established": 2176,
      "non": 2177,
      "returned": 2178,
      "feel": 2179,
      "does": 2180,
      "title": 2181,
      "written": 2182,
      "thing": 2183,
      "feet": 2184,
      "william": 2185,
      "far": 2186,
      "co": 2187,
      "association": 2188,
      "hard": 2189,
      "already": 2190,
      "2002": 2191,
      "##ra": 2192,
      "championship": 2193,
      "human": 2194,
      "western": 2195,
      "100": 2196,
      "##na": 2197,
      "department": 2198,
      "hall": 2199,
      "role": 2200,
      "various": 2201,
      "production": 2202,
      "21": 2203,
      "19": 2204,
      "heart": 2205,
      "2001": 2206,
      "living": 2207,
      "fire": 2208,
      "version": 2209,
      "##ers": 2210,
      "##f": 2211,
      "television": 2212,
      "royal": 2213,
      "##4": 2214,
      "produced": 2215,
      "working": 2216,
      "act": 2217,
      "case": 2218,
      "society": 2219,
      "region": 2220,
      "present": 2221,
      "radio": 2222,
      "period": 2223,
      "looking": 2224,
      "least": 2225,
      "total": 2226,
      "keep": 2227,
      "england": 2228,
      "wife": 2229,
      "program": 2230,
      "per": 2231,
      "brother": 2232,
      "mind": 2233,
      "special": 2234,
      "22": 2235,
      "##le": 2236,
      "am": 2237,
      "works": 2238,
      "soon": 2239,
      "##6": 2240,
      "political": 2241,
      "george": 2242,
      "services": 2243,
      "taken": 2244,
      "created": 2245,
      "##7": 2246,
      "further": 2247,
      "able": 2248,
      "reached": 2249,
      "david": 2250,
      "union": 2251,
      "joined": 2252,
      "upon": 2253,
      "done": 2254,
      "important": 2255,
      "social": 2256,
      "information": 2257,
      "either": 2258,
      "##ic": 2259,
      "##x": 2260,
      "appeared": 2261,
      "position": 2262,
      "ground": 2263,
      "lead": 2264,
      "rock": 2265,
      "dark": 2266,
      "election": 2267,
      "23": 2268,
      "board": 2269,
      "france": 2270,
      "hair": 2271,
      "course": 2272,
      "arms": 2273,
      "site": 2274,
      "police": 2275,
      "girl": 2276,
      "instead": 2277,
      "real": 2278,
      "sound": 2279,
      "##v": 2280,
      "words": 2281,
      "moment": 2282,
      "##te": 2283,
      "someone": 2284,
      "##8": 2285,
      "summer": 2286,
      "project": 2287,
      "announced": 2288,
      "san": 2289,
      "less": 2290,
      "wrote": 2291,
      "past": 2292,
      "followed": 2293,
      "##5": 2294,
      "blue": 2295,
      "founded": 2296,
      "al": 2297,
      "finally": 2298,
      "india": 2299,
      "taking": 2300,
      "records": 2301,
      "america": 2302,
      "##ne": 2303,
      "1999": 2304,
      "design": 2305,
      "considered": 2306,
      "northern": 2307,
      "god": 2308,
      "stop": 2309,
      "battle": 2310,
      "toward": 2311,
      "european": 2312,
      "outside": 2313,
      "described": 2314,
      "track": 2315,
      "today": 2316,
      "playing": 2317,
      "language": 2318,
      "28": 2319,
      "call": 2320,
      "26": 2321,
      "heard": 2322,
      "professional": 2323,
      "low": 2324,
      "australia": 2325,
      "miles": 2326,
      "california": 2327,
      "win": 2328,
      "yet": 2329,
      "green": 2330,
      "##ie": 2331,
      "trying": 2332,
      "blood": 2333,
      "##ton": 2334,
      "southern": 2335,
      "science": 2336,
      "maybe": 2337,
      "everything": 2338,
      "match": 2339,
      "square": 2340,
      "27": 2341,
      "mouth": 2342,
      "video": 2343,
      "race": 2344,
      "recorded": 2345,
      "leave": 2346,
      "above": 2347,
      "##9": 2348,
      "daughter": 2349,
      "points": 2350,
      "space": 2351,
      "1998": 2352,
      "museum": 2353,
      "change": 2354,
      "middle": 2355,
      "common": 2356,
      "##0": 2357,
      "move": 2358,
      "tv": 2359,
      "post": 2360,
      "##ta": 2361,
      "lake": 2362,
      "seven": 2363,
      "tried": 2364,
      "elected": 2365,
      "closed": 2366,
      "ten": 2367,
      "paul": 2368,
      "minister": 2369,
      "##th": 2370,
      "months": 2371,
      "start": 2372,
      "chief": 2373,
      "return": 2374,
      "canada": 2375,
      "person": 2376,
      "sea": 2377,
      "release": 2378,
      "similar": 2379,
      "modern": 2380,
      "brought": 2381,
      "rest": 2382,
      "hit": 2383,
      "formed": 2384,
      "mr": 2385,
      "##la": 2386,
      "1997": 2387,
      "floor": 2388,
      "event": 2389,
      "doing": 2390,
      "thomas": 2391,
      "1996": 2392,
      "robert": 2393,
      "care": 2394,
      "killed": 2395,
      "training": 2396,
      "star": 2397,
      "week": 2398,
      "needed": 2399,
      "turn": 2400,
      "finished": 2401,
      "railway": 2402,
      "rather": 2403,
      "news": 2404,
      "health": 2405,
      "sent": 2406,
      "example": 2407,
      "ran": 2408,
      "term": 2409,
      "michael": 2410,
      "coming": 2411,
      "currently": 2412,
      "yes": 2413,
      "forces": 2414,
      "despite": 2415,
      "gold": 2416,
      "areas": 2417,
      "50": 2418,
      "stage": 2419,
      "fact": 2420,
      "29": 2421,
      "dead": 2422,
      "says": 2423,
      "popular": 2424,
      "2018": 2425,
      "originally": 2426,
      "germany": 2427,
      "probably": 2428,
      "developed": 2429,
      "result": 2430,
      "pulled": 2431,
      "friend": 2432,
      "stood": 2433,
      "money": 2434,
      "running": 2435,
      "mi": 2436,
      "signed": 2437,
      "word": 2438,
      "songs": 2439,
      "child": 2440,
      "eventually": 2441,
      "met": 2442,
      "tour": 2443,
      "average": 2444,
      "teams": 2445,
      "minutes": 2446,
      "festival": 2447,
      "current": 2448,
      "deep": 2449,
      "kind": 2450,
      "1995": 2451,
      "decided": 2452,
      "usually": 2453,
      "eastern": 2454,
      "seemed": 2455,
      "##ness": 2456,
      "episode": 2457,
      "bed": 2458,
      "added": 2459,
      "table": 2460,
      "indian": 2461,
      "private": 2462,
      "charles": 2463,
      "route": 2464,
      "available": 2465,
      "idea": 2466,
      "throughout": 2467,
      "centre": 2468,
      "addition": 2469,
      "appointed": 2470,
      "style": 2471,
      "1994": 2472,
      "books": 2473,
      "eight": 2474,
      "construction": 2475,
      "press": 2476,
      "mean": 2477,
      "wall": 2478,
      "friends": 2479,
      "remained": 2480,
      "schools": 2481,
      "study": 2482,
      "##ch": 2483,
      "##um": 2484,
      "institute": 2485,
      "oh": 2486,
      "chinese": 2487,
      "sometimes": 2488,
      "events": 2489,
      "possible": 2490,
      "1992": 2491,
      "australian": 2492,
      "type": 2493,
      "brown": 2494,
      "forward": 2495,
      "talk": 2496,
      "process": 2497,
      "food": 2498,
      "debut": 2499,
      "seat": 2500,
      "performance": 2501,
      "committee": 2502,
      "features": 2503,
      "character": 2504,
      "arts": 2505,
      "herself": 2506,
      "else": 2507,
      "lot": 2508,
      "strong": 2509,
      "russian": 2510,
      "range": 2511,
      "hours": 2512,
      "peter": 2513,
      "arm": 2514,
      "##da": 2515,
      "morning": 2516,
      "dr": 2517,
      "sold": 2518,
      "##ry": 2519,
      "quickly": 2520,
      "directed": 2521,
      "1993": 2522,
      "guitar": 2523,
      "china": 2524,
      "##w": 2525,
      "31": 2526,
      "list": 2527,
      "##ma": 2528,
      "performed": 2529,
      "media": 2530,
      "uk": 2531,
      "players": 2532,
      "smile": 2533,
      "##rs": 2534,
      "myself": 2535,
      "40": 2536,
      "placed": 2537,
      "coach": 2538,
      "province": 2539,
      "towards": 2540,
      "wouldn": 2541,
      "leading": 2542,
      "whole": 2543,
      "boy": 2544,
      "official": 2545,
      "designed": 2546,
      "grand": 2547,
      "census": 2548,
      "##el": 2549,
      "europe": 2550,
      "attack": 2551,
      "japanese": 2552,
      "henry": 2553,
      "1991": 2554,
      "##re": 2555,
      "##os": 2556,
      "cross": 2557,
      "getting": 2558,
      "alone": 2559,
      "action": 2560,
      "lower": 2561,
      "network": 2562,
      "wide": 2563,
      "washington": 2564,
      "japan": 2565,
      "1990": 2566,
      "hospital": 2567,
      "believe": 2568,
      "changed": 2569,
      "sister": 2570,
      "##ar": 2571,
      "hold": 2572,
      "gone": 2573,
      "sir": 2574,
      "hadn": 2575,
      "ship": 2576,
      "##ka": 2577,
      "studies": 2578,
      "academy": 2579,
      "shot": 2580,
      "rights": 2581,
      "below": 2582,
      "base": 2583,
      "bad": 2584,
      "involved": 2585,
      "kept": 2586,
      "largest": 2587,
      "##ist": 2588,
      "bank": 2589,
      "future": 2590,
      "especially": 2591,
      "beginning": 2592,
      "mark": 2593,
      "movement": 2594,
      "section": 2595,
      "female": 2596,
      "magazine": 2597,
      "plan": 2598,
      "professor": 2599,
      "lord": 2600,
      "longer": 2601,
      "##ian": 2602,
      "sat": 2603,
      "walked": 2604,
      "hill": 2605,
      "actually": 2606,
      "civil": 2607,
      "energy": 2608,
      "model": 2609,
      "families": 2610,
      "size": 2611,
      "thus": 2612,
      "aircraft": 2613,
      "completed": 2614,
      "includes": 2615,
      "data": 2616,
      "captain": 2617,
      "##or": 2618,
      "fight": 2619,
      "vocals": 2620,
      "featured": 2621,
      "richard": 2622,
      "bridge": 2623,
      "fourth": 2624,
      "1989": 2625,
      "officer": 2626,
      "stone": 2627,
      "hear": 2628,
      "##ism": 2629,
      "means": 2630,
      "medical": 2631,
      "groups": 2632,
      "management": 2633,
      "self": 2634,
      "lips": 2635,
      "competition": 2636,
      "entire": 2637,
      "lived": 2638,
      "technology": 2639,
      "leaving": 2640,
      "federal": 2641,
      "tournament": 2642,
      "bit": 2643,
      "passed": 2644,
      "hot": 2645,
      "independent": 2646,
      "awards": 2647,
      "kingdom": 2648,
      "mary": 2649,
      "spent": 2650,
      "fine": 2651,
      "doesn": 2652,
      "reported": 2653,
      "##ling": 2654,
      "jack": 2655,
      "fall": 2656,
      "raised": 2657,
      "itself": 2658,
      "stay": 2659,
      "true": 2660,
      "studio": 2661,
      "1988": 2662,
      "sports": 2663,
      "replaced": 2664,
      "paris": 2665,
      "systems": 2666,
      "saint": 2667,
      "leader": 2668,
      "theatre": 2669,
      "whose": 2670,
      "market": 2671,
      "capital": 2672,
      "parents": 2673,
      "spanish": 2674,
      "canadian": 2675,
      "earth": 2676,
      "##ity": 2677,
      "cut": 2678,
      "degree": 2679,
      "writing": 2680,
      "bay": 2681,
      "christian": 2682,
      "awarded": 2683,
      "natural": 2684,
      "higher": 2685,
      "bill": 2686,
      "##as": 2687,
      "coast": 2688,
      "provided": 2689,
      "previous": 2690,
      "senior": 2691,
      "ft": 2692,
      "valley": 2693,
      "organization": 2694,
      "stopped": 2695,
      "onto": 2696,
      "countries": 2697,
      "parts": 2698,
      "conference": 2699,
      "queen": 2700,
      "security": 2701,
      "interest": 2702,
      "saying": 2703,
      "allowed": 2704,
      "master": 2705,
      "earlier": 2706,
      "phone": 2707,
      "matter": 2708,
      "smith": 2709,
      "winning": 2710,
      "try": 2711,
      "happened": 2712,
      "moving": 2713,
      "campaign": 2714,
      "los": 2715,
      "##ley": 2716,
      "breath": 2717,
      "nearly": 2718,
      "mid": 2719,
      "1987": 2720,
      "certain": 2721,
      "girls": 2722,
      "date": 2723,
      "italian": 2724,
      "african": 2725,
      "standing": 2726,
      "fell": 2727,
      "artist": 2728,
      "##ted": 2729,
      "shows": 2730,
      "deal": 2731,
      "mine": 2732,
      "industry": 2733,
      "1986": 2734,
      "##ng": 2735,
      "everyone": 2736,
      "republic": 2737,
      "provide": 2738,
      "collection": 2739,
      "library": 2740,
      "student": 2741,
      "##ville": 2742,
      "primary": 2743,
      "owned": 2744,
      "older": 2745,
      "via": 2746,
      "heavy": 2747,
      "1st": 2748,
      "makes": 2749,
      "##able": 2750,
      "attention": 2751,
      "anyone": 2752,
      "africa": 2753,
      "##ri": 2754,
      "stated": 2755,
      "length": 2756,
      "ended": 2757,
      "fingers": 2758,
      "command": 2759,
      "staff": 2760,
      "skin": 2761,
      "foreign": 2762,
      "opening": 2763,
      "governor": 2764,
      "okay": 2765,
      "medal": 2766,
      "kill": 2767,
      "sun": 2768,
      "cover": 2769,
      "job": 2770,
      "1985": 2771,
      "introduced": 2772,
      "chest": 2773,
      "hell": 2774,
      "feeling": 2775,
      "##ies": 2776,
      "success": 2777,
      "meet": 2778,
      "reason": 2779,
      "standard": 2780,
      "meeting": 2781,
      "novel": 2782,
      "1984": 2783,
      "trade": 2784,
      "source": 2785,
      "buildings": 2786,
      "##land": 2787,
      "rose": 2788,
      "guy": 2789,
      "goal": 2790,
      "##ur": 2791,
      "chapter": 2792,
      "native": 2793,
      "husband": 2794,
      "previously": 2795,
      "unit": 2796,
      "limited": 2797,
      "entered": 2798,
      "weeks": 2799,
      "producer": 2800,
      "operations": 2801,
      "mountain": 2802,
      "takes": 2803,
      "covered": 2804,
      "forced": 2805,
      "related": 2806,
      "roman": 2807,
      "complete": 2808,
      "successful": 2809,
      "key": 2810,
      "texas": 2811,
      "cold": 2812,
      "##ya": 2813,
      "channel": 2814,
      "1980": 2815,
      "traditional": 2816,
      "films": 2817,
      "dance": 2818,
      "clear": 2819,
      "approximately": 2820,
      "500": 2821,
      "nine": 2822,
      "van": 2823,
      "prince": 2824,
      "question": 2825,
      "active": 2826,
      "tracks": 2827,
      "ireland": 2828,
      "regional": 2829,
      "silver": 2830,
      "author": 2831,
      "personal": 2832,
      "sense": 2833,
      "operation": 2834,
      "##ine": 2835,
      "economic": 2836,
      "1983": 2837,
      "holding": 2838,
      "twenty": 2839,
      "isbn": 2840,
      "additional": 2841,
      "speed": 2842,
      "hour": 2843,
      "edition": 2844,
      "regular": 2845,
      "historic": 2846,
      "places": 2847,
      "whom": 2848,
      "shook": 2849,
      "movie": 2850,
      "km²": 2851,
      "secretary": 2852,
      "prior": 2853,
      "report": 2854,
      "chicago": 2855,
      "read": 2856,
      "foundation": 2857,
      "view": 2858,
      "engine": 2859,
      "scored": 2860,
      "1982": 2861,
      "units": 2862,
      "ask": 2863,
      "airport": 2864,
      "property": 2865,
      "ready": 2866,
      "immediately": 2867,
      "lady": 2868,
      "month": 2869,
      "listed": 2870,
      "contract": 2871,
      "##de": 2872,
      "manager": 2873,
      "themselves": 2874,
      "lines": 2875,
      "##ki": 2876,
      "navy": 2877,
      "writer": 2878,
      "meant": 2879,
      "##ts": 2880,
      "runs": 2881,
      "##ro": 2882,
      "practice": 2883,
      "championships": 2884,
      "singer": 2885,
      "glass": 2886,
      "commission": 2887,
      "required": 2888,
      "forest": 2889,
      "starting": 2890,
      "culture": 2891,
      "generally": 2892,
      "giving": 2893,
      "access": 2894,
      "attended": 2895,
      "test": 2896,
      "couple": 2897,
      "stand": 2898,
      "catholic": 2899,
      "martin": 2900,
      "caught": 2901,
      "executive": 2902,
      "##less": 2903,
      "eye": 2904,
      "##ey": 2905,
      "thinking": 2906,
      "chair": 2907,
      "quite": 2908,
      "shoulder": 2909,
      "1979": 2910,
      "hope": 2911,
      "decision": 2912,
      "plays": 2913,
      "defeated": 2914,
      "municipality": 2915,
      "whether": 2916,
      "structure": 2917,
      "offered": 2918,
      "slowly": 2919,
      "pain": 2920,
      "ice": 2921,
      "direction": 2922,
      "##ion": 2923,
      "paper": 2924,
      "mission": 2925,
      "1981": 2926,
      "mostly": 2927,
      "200": 2928,
      "noted": 2929,
      "individual": 2930,
      "managed": 2931,
      "nature": 2932,
      "lives": 2933,
      "plant": 2934,
      "##ha": 2935,
      "helped": 2936,
      "except": 2937,
      "studied": 2938,
      "computer": 2939,
      "figure": 2940,
      "relationship": 2941,
      "issue": 2942,
      "significant": 2943,
      "loss": 2944,
      "die": 2945,
      "smiled": 2946,
      "gun": 2947,
      "ago": 2948,
      "highest": 2949,
      "1972": 2950,
      "##am": 2951,
      "male": 2952,
      "bring": 2953,
      "goals": 2954,
      "mexico": 2955,
      "problem": 2956,
      "distance": 2957,
      "commercial": 2958,
      "completely": 2959,
      "location": 2960,
      "annual": 2961,
      "famous": 2962,
      "drive": 2963,
      "1976": 2964,
      "neck": 2965,
      "1978": 2966,
      "surface": 2967,
      "caused": 2968,
      "italy": 2969,
      "understand": 2970,
      "greek": 2971,
      "highway": 2972,
      "wrong": 2973,
      "hotel": 2974,
      "comes": 2975,
      "appearance": 2976,
      "joseph": 2977,
      "double": 2978,
      "issues": 2979,
      "musical": 2980,
      "companies": 2981,
      "castle": 2982,
      "income": 2983,
      "review": 2984,
      "assembly": 2985,
      "bass": 2986,
      "initially": 2987,
      "parliament": 2988,
      "artists": 2989,
      "experience": 2990,
      "1974": 2991,
      "particular": 2992,
      "walk": 2993,
      "foot": 2994,
      "engineering": 2995,
      "talking": 2996,
      "window": 2997,
      "dropped": 2998,
      "##ter": 2999,
      "miss": 3000,
      "baby": 3001,
      "boys": 3002,
      "break": 3003,
      "1975": 3004,
      "stars": 3005,
      "edge": 3006,
      "remember": 3007,
      "policy": 3008,
      "carried": 3009,
      "train": 3010,
      "stadium": 3011,
      "bar": 3012,
      "sex": 3013,
      "angeles": 3014,
      "evidence": 3015,
      "##ge": 3016,
      "becoming": 3017,
      "assistant": 3018,
      "soviet": 3019,
      "1977": 3020,
      "upper": 3021,
      "step": 3022,
      "wing": 3023,
      "1970": 3024,
      "youth": 3025,
      "financial": 3026,
      "reach": 3027,
      "##ll": 3028,
      "actor": 3029,
      "numerous": 3030,
      "##se": 3031,
      "##st": 3032,
      "nodded": 3033,
      "arrived": 3034,
      "##ation": 3035,
      "minute": 3036,
      "##nt": 3037,
      "believed": 3038,
      "sorry": 3039,
      "complex": 3040,
      "beautiful": 3041,
      "victory": 3042,
      "associated": 3043,
      "temple": 3044,
      "1968": 3045,
      "1973": 3046,
      "chance": 3047,
      "perhaps": 3048,
      "metal": 3049,
      "##son": 3050,
      "1945": 3051,
      "bishop": 3052,
      "##et": 3053,
      "lee": 3054,
      "launched": 3055,
      "particularly": 3056,
      "tree": 3057,
      "le": 3058,
      "retired": 3059,
      "subject": 3060,
      "prize": 3061,
      "contains": 3062,
      "yeah": 3063,
      "theory": 3064,
      "empire": 3065,
      "##ce": 3066,
      "suddenly": 3067,
      "waiting": 3068,
      "trust": 3069,
      "recording": 3070,
      "##to": 3071,
      "happy": 3072,
      "terms": 3073,
      "camp": 3074,
      "champion": 3075,
      "1971": 3076,
      "religious": 3077,
      "pass": 3078,
      "zealand": 3079,
      "names": 3080,
      "2nd": 3081,
      "port": 3082,
      "ancient": 3083,
      "tom": 3084,
      "corner": 3085,
      "represented": 3086,
      "watch": 3087,
      "legal": 3088,
      "anti": 3089,
      "justice": 3090,
      "cause": 3091,
      "watched": 3092,
      "brothers": 3093,
      "45": 3094,
      "material": 3095,
      "changes": 3096,
      "simply": 3097,
      "response": 3098,
      "louis": 3099,
      "fast": 3100,
      "##ting": 3101,
      "answer": 3102,
      "60": 3103,
      "historical": 3104,
      "1969": 3105,
      "stories": 3106,
      "straight": 3107,
      "create": 3108,
      "feature": 3109,
      "increased": 3110,
      "rate": 3111,
      "administration": 3112,
      "virginia": 3113,
      "el": 3114,
      "activities": 3115,
      "cultural": 3116,
      "overall": 3117,
      "winner": 3118,
      "programs": 3119,
      "basketball": 3120,
      "legs": 3121,
      "guard": 3122,
      "beyond": 3123,
      "cast": 3124,
      "doctor": 3125,
      "mm": 3126,
      "flight": 3127,
      "results": 3128,
      "remains": 3129,
      "cost": 3130,
      "effect": 3131,
      "winter": 3132,
      "##ble": 3133,
      "larger": 3134,
      "islands": 3135,
      "problems": 3136,
      "chairman": 3137,
      "grew": 3138,
      "commander": 3139,
      "isn": 3140,
      "1967": 3141,
      "pay": 3142,
      "failed": 3143,
      "selected": 3144,
      "hurt": 3145,
      "fort": 3146,
      "box": 3147,
      "regiment": 3148,
      "majority": 3149,
      "journal": 3150,
      "35": 3151,
      "edward": 3152,
      "plans": 3153,
      "##ke": 3154,
      "##ni": 3155,
      "shown": 3156,
      "pretty": 3157,
      "irish": 3158,
      "characters": 3159,
      "directly": 3160,
      "scene": 3161,
      "likely": 3162,
      "operated": 3163,
      "allow": 3164,
      "spring": 3165,
      "##j": 3166,
      "junior": 3167,
      "matches": 3168,
      "looks": 3169,
      "mike": 3170,
      "houses": 3171,
      "fellow": 3172,
      "##tion": 3173,
      "beach": 3174,
      "marriage": 3175,
      "##ham": 3176,
      "##ive": 3177,
      "rules": 3178,
      "oil": 3179,
      "65": 3180,
      "florida": 3181,
      "expected": 3182,
      "nearby": 3183,
      "congress": 3184,
      "sam": 3185,
      "peace": 3186,
      "recent": 3187,
      "iii": 3188,
      "wait": 3189,
      "subsequently": 3190,
      "cell": 3191,
      "##do": 3192,
      "variety": 3193,
      "serving": 3194,
      "agreed": 3195,
      "please": 3196,
      "poor": 3197,
      "joe": 3198,
      "pacific": 3199,
      "attempt": 3200,
      "wood": 3201,
      "democratic": 3202,
      "piece": 3203,
      "prime": 3204,
      "##ca": 3205,
      "rural": 3206,
      "mile": 3207,
      "touch": 3208,
      "appears": 3209,
      "township": 3210,
      "1964": 3211,
      "1966": 3212,
      "soldiers": 3213,
      "##men": 3214,
      "##ized": 3215,
      "1965": 3216,
      "pennsylvania": 3217,
      "closer": 3218,
      "fighting": 3219,
      "claimed": 3220,
      "score": 3221,
      "jones": 3222,
      "physical": 3223,
      "editor": 3224,
      "##ous": 3225,
      "filled": 3226,
      "genus": 3227,
      "specific": 3228,
      "sitting": 3229,
      "super": 3230,
      "mom": 3231,
      "##va": 3232,
      "therefore": 3233,
      "supported": 3234,
      "status": 3235,
      "fear": 3236,
      "cases": 3237,
      "store": 3238,
      "meaning": 3239,
      "wales": 3240,
      "minor": 3241,
      "spain": 3242,
      "tower": 3243,
      "focus": 3244,
      "vice": 3245,
      "frank": 3246,
      "follow": 3247,
      "parish": 3248,
      "separate": 3249,
      "golden": 3250,
      "horse": 3251,
      "fifth": 3252,
      "remaining": 3253,
      "branch": 3254,
      "32": 3255,
      "presented": 3256,
      "stared": 3257,
      "##id": 3258,
      "uses": 3259,
      "secret": 3260,
      "forms": 3261,
      "##co": 3262,
      "baseball": 3263,
      "exactly": 3264,
      "##ck": 3265,
      "choice": 3266,
      "note": 3267,
      "discovered": 3268,
      "travel": 3269,
      "composed": 3270,
      "truth": 3271,
      "russia": 3272,
      "ball": 3273,
      "color": 3274,
      "kiss": 3275,
      "dad": 3276,
      "wind": 3277,
      "continue": 3278,
      "ring": 3279,
      "referred": 3280,
      "numbers": 3281,
      "digital": 3282,
      "greater": 3283,
      "##ns": 3284,
      "metres": 3285,
      "slightly": 3286,
      "direct": 3287,
      "increase": 3288,
      "1960": 3289,
      "responsible": 3290,
      "crew": 3291,
      "rule": 3292,
      "trees": 3293,
      "troops": 3294,
      "##no": 3295,
      "broke": 3296,
      "goes": 3297,
      "individuals": 3298,
      "hundred": 3299,
      "weight": 3300,
      "creek": 3301,
      "sleep": 3302,
      "memory": 3303,
      "defense": 3304,
      "provides": 3305,
      "ordered": 3306,
      "code": 3307,
      "value": 3308,
      "jewish": 3309,
      "windows": 3310,
      "1944": 3311,
      "safe": 3312,
      "judge": 3313,
      "whatever": 3314,
      "corps": 3315,
      "realized": 3316,
      "growing": 3317,
      "pre": 3318,
      "##ga": 3319,
      "cities": 3320,
      "alexander": 3321,
      "gaze": 3322,
      "lies": 3323,
      "spread": 3324,
      "scott": 3325,
      "letter": 3326,
      "showed": 3327,
      "situation": 3328,
      "mayor": 3329,
      "transport": 3330,
      "watching": 3331,
      "workers": 3332,
      "extended": 3333,
      "##li": 3334,
      "expression": 3335,
      "normal": 3336,
      "##ment": 3337,
      "chart": 3338,
      "multiple": 3339,
      "border": 3340,
      "##ba": 3341,
      "host": 3342,
      "##ner": 3343,
      "daily": 3344,
      "mrs": 3345,
      "walls": 3346,
      "piano": 3347,
      "##ko": 3348,
      "heat": 3349,
      "cannot": 3350,
      "##ate": 3351,
      "earned": 3352,
      "products": 3353,
      "drama": 3354,
      "era": 3355,
      "authority": 3356,
      "seasons": 3357,
      "join": 3358,
      "grade": 3359,
      "##io": 3360,
      "sign": 3361,
      "difficult": 3362,
      "machine": 3363,
      "1963": 3364,
      "territory": 3365,
      "mainly": 3366,
      "##wood": 3367,
      "stations": 3368,
      "squadron": 3369,
      "1962": 3370,
      "stepped": 3371,
      "iron": 3372,
      "19th": 3373,
      "##led": 3374,
      "serve": 3375,
      "appear": 3376,
      "sky": 3377,
      "speak": 3378,
      "broken": 3379,
      "charge": 3380,
      "knowledge": 3381,
      "kilometres": 3382,
      "removed": 3383,
      "ships": 3384,
      "article": 3385,
      "campus": 3386,
      "simple": 3387,
      "##ty": 3388,
      "pushed": 3389,
      "britain": 3390,
      "##ve": 3391,
      "leaves": 3392,
      "recently": 3393,
      "cd": 3394,
      "soft": 3395,
      "boston": 3396,
      "latter": 3397,
      "easy": 3398,
      "acquired": 3399,
      "poland": 3400,
      "##sa": 3401,
      "quality": 3402,
      "officers": 3403,
      "presence": 3404,
      "planned": 3405,
      "nations": 3406,
      "mass": 3407,
      "broadcast": 3408,
      "jean": 3409,
      "share": 3410,
      "image": 3411,
      "influence": 3412,
      "wild": 3413,
      "offer": 3414,
      "emperor": 3415,
      "electric": 3416,
      "reading": 3417,
      "headed": 3418,
      "ability": 3419,
      "promoted": 3420,
      "yellow": 3421,
      "ministry": 3422,
      "1942": 3423,
      "throat": 3424,
      "smaller": 3425,
      "politician": 3426,
      "##by": 3427,
      "latin": 3428,
      "spoke": 3429,
      "cars": 3430,
      "williams": 3431,
      "males": 3432,
      "lack": 3433,
      "pop": 3434,
      "80": 3435,
      "##ier": 3436,
      "acting": 3437,
      "seeing": 3438,
      "consists": 3439,
      "##ti": 3440,
      "estate": 3441,
      "1961": 3442,
      "pressure": 3443,
      "johnson": 3444,
      "newspaper": 3445,
      "jr": 3446,
      "chris": 3447,
      "olympics": 3448,
      "online": 3449,
      "conditions": 3450,
      "beat": 3451,
      "elements": 3452,
      "walking": 3453,
      "vote": 3454,
      "##field": 3455,
      "needs": 3456,
      "carolina": 3457,
      "text": 3458,
      "featuring": 3459,
      "global": 3460,
      "block": 3461,
      "shirt": 3462,
      "levels": 3463,
      "francisco": 3464,
      "purpose": 3465,
      "females": 3466,
      "et": 3467,
      "dutch": 3468,
      "duke": 3469,
      "ahead": 3470,
      "gas": 3471,
      "twice": 3472,
      "safety": 3473,
      "serious": 3474,
      "turning": 3475,
      "highly": 3476,
      "lieutenant": 3477,
      "firm": 3478,
      "maria": 3479,
      "amount": 3480,
      "mixed": 3481,
      "daniel": 3482,
      "proposed": 3483,
      "perfect": 3484,
      "agreement": 3485,
      "affairs": 3486,
      "3rd": 3487,
      "seconds": 3488,
      "contemporary": 3489,
      "paid": 3490,
      "1943": 3491,
      "prison": 3492,
      "save": 3493,
      "kitchen": 3494,
      "label": 3495,
      "administrative": 3496,
      "intended": 3497,
      "constructed": 3498,
      "academic": 3499,
      "nice": 3500,
      "teacher": 3501,
      "races": 3502,
      "1956": 3503,
      "formerly": 3504,
      "corporation": 3505,
      "ben": 3506,
      "nation": 3507,
      "issued": 3508,
      "shut": 3509,
      "1958": 3510,
      "drums": 3511,
      "housing": 3512,
      "victoria": 3513,
      "seems": 3514,
      "opera": 3515,
      "1959": 3516,
      "graduated": 3517,
      "function": 3518,
      "von": 3519,
      "mentioned": 3520,
      "picked": 3521,
      "build": 3522,
      "recognized": 3523,
      "shortly": 3524,
      "protection": 3525,
      "picture": 3526,
      "notable": 3527,
      "exchange": 3528,
      "elections": 3529,
      "1980s": 3530,
      "loved": 3531,
      "percent": 3532,
      "racing": 3533,
      "fish": 3534,
      "elizabeth": 3535,
      "garden": 3536,
      "volume": 3537,
      "hockey": 3538,
      "1941": 3539,
      "beside": 3540,
      "settled": 3541,
      "##ford": 3542,
      "1940": 3543,
      "competed": 3544,
      "replied": 3545,
      "drew": 3546,
      "1948": 3547,
      "actress": 3548,
      "marine": 3549,
      "scotland": 3550,
      "steel": 3551,
      "glanced": 3552,
      "farm": 3553,
      "steve": 3554,
      "1957": 3555,
      "risk": 3556,
      "tonight": 3557,
      "positive": 3558,
      "magic": 3559,
      "singles": 3560,
      "effects": 3561,
      "gray": 3562,
      "screen": 3563,
      "dog": 3564,
      "##ja": 3565,
      "residents": 3566,
      "bus": 3567,
      "sides": 3568,
      "none": 3569,
      "secondary": 3570,
      "literature": 3571,
      "polish": 3572,
      "destroyed": 3573,
      "flying": 3574,
      "founder": 3575,
      "households": 3576,
      "1939": 3577,
      "lay": 3578,
      "reserve": 3579,
      "usa": 3580,
      "gallery": 3581,
      "##ler": 3582,
      "1946": 3583,
      "industrial": 3584,
      "younger": 3585,
      "approach": 3586,
      "appearances": 3587,
      "urban": 3588,
      "ones": 3589,
      "1950": 3590,
      "finish": 3591,
      "avenue": 3592,
      "powerful": 3593,
      "fully": 3594,
      "growth": 3595,
      "page": 3596,
      "honor": 3597,
      "jersey": 3598,
      "projects": 3599,
      "advanced": 3600,
      "revealed": 3601,
      "basic": 3602,
      "90": 3603,
      "infantry": 3604,
      "pair": 3605,
      "equipment": 3606,
      "visit": 3607,
      "33": 3608,
      "evening": 3609,
      "search": 3610,
      "grant": 3611,
      "effort": 3612,
      "solo": 3613,
      "treatment": 3614,
      "buried": 3615,
      "republican": 3616,
      "primarily": 3617,
      "bottom": 3618,
      "owner": 3619,
      "1970s": 3620,
      "israel": 3621,
      "gives": 3622,
      "jim": 3623,
      "dream": 3624,
      "bob": 3625,
      "remain": 3626,
      "spot": 3627,
      "70": 3628,
      "notes": 3629,
      "produce": 3630,
      "champions": 3631,
      "contact": 3632,
      "ed": 3633,
      "soul": 3634,
      "accepted": 3635,
      "ways": 3636,
      "del": 3637,
      "##ally": 3638,
      "losing": 3639,
      "split": 3640,
      "price": 3641,
      "capacity": 3642,
      "basis": 3643,
      "trial": 3644,
      "questions": 3645,
      "##ina": 3646,
      "1955": 3647,
      "20th": 3648,
      "guess": 3649,
      "officially": 3650,
      "memorial": 3651,
      "naval": 3652,
      "initial": 3653,
      "##ization": 3654,
      "whispered": 3655,
      "median": 3656,
      "engineer": 3657,
      "##ful": 3658,
      "sydney": 3659,
      "##go": 3660,
      "columbia": 3661,
      "strength": 3662,
      "300": 3663,
      "1952": 3664,
      "tears": 3665,
      "senate": 3666,
      "00": 3667,
      "card": 3668,
      "asian": 3669,
      "agent": 3670,
      "1947": 3671,
      "software": 3672,
      "44": 3673,
      "draw": 3674,
      "warm": 3675,
      "supposed": 3676,
      "com": 3677,
      "pro": 3678,
      "##il": 3679,
      "transferred": 3680,
      "leaned": 3681,
      "##at": 3682,
      "candidate": 3683,
      "escape": 3684,
      "mountains": 3685,
      "asia": 3686,
      "potential": 3687,
      "activity": 3688,
      "entertainment": 3689,
      "seem": 3690,
      "traffic": 3691,
      "jackson": 3692,
      "murder": 3693,
      "36": 3694,
      "slow": 3695,
      "product": 3696,
      "orchestra": 3697,
      "haven": 3698,
      "agency": 3699,
      "bbc": 3700,
      "taught": 3701,
      "website": 3702,
      "comedy": 3703,
      "unable": 3704,
      "storm": 3705,
      "planning": 3706,
      "albums": 3707,
      "rugby": 3708,
      "environment": 3709,
      "scientific": 3710,
      "grabbed": 3711,
      "protect": 3712,
      "##hi": 3713,
      "boat": 3714,
      "typically": 3715,
      "1954": 3716,
      "1953": 3717,
      "damage": 3718,
      "principal": 3719,
      "divided": 3720,
      "dedicated": 3721,
      "mount": 3722,
      "ohio": 3723,
      "##berg": 3724,
      "pick": 3725,
      "fought": 3726,
      "driver": 3727,
      "##der": 3728,
      "empty": 3729,
      "shoulders": 3730,
      "sort": 3731,
      "thank": 3732,
      "berlin": 3733,
      "prominent": 3734,
      "account": 3735,
      "freedom": 3736,
      "necessary": 3737,
      "efforts": 3738,
      "alex": 3739,
      "headquarters": 3740,
      "follows": 3741,
      "alongside": 3742,
      "des": 3743,
      "simon": 3744,
      "andrew": 3745,
      "suggested": 3746,
      "operating": 3747,
      "learning": 3748,
      "steps": 3749,
      "1949": 3750,
      "sweet": 3751,
      "technical": 3752,
      "begin": 3753,
      "easily": 3754,
      "34": 3755,
      "teeth": 3756,
      "speaking": 3757,
      "settlement": 3758,
      "scale": 3759,
      "##sh": 3760,
      "renamed": 3761,
      "ray": 3762,
      "max": 3763,
      "enemy": 3764,
      "semi": 3765,
      "joint": 3766,
      "compared": 3767,
      "##rd": 3768,
      "scottish": 3769,
      "leadership": 3770,
      "analysis": 3771,
      "offers": 3772,
      "georgia": 3773,
      "pieces": 3774,
      "captured": 3775,
      "animal": 3776,
      "deputy": 3777,
      "guest": 3778,
      "organized": 3779,
      "##lin": 3780,
      "tony": 3781,
      "combined": 3782,
      "method": 3783,
      "challenge": 3784,
      "1960s": 3785,
      "huge": 3786,
      "wants": 3787,
      "battalion": 3788,
      "sons": 3789,
      "rise": 3790,
      "crime": 3791,
      "types": 3792,
      "facilities": 3793,
      "telling": 3794,
      "path": 3795,
      "1951": 3796,
      "platform": 3797,
      "sit": 3798,
      "1990s": 3799,
      "##lo": 3800,
      "tells": 3801,
      "assigned": 3802,
      "rich": 3803,
      "pull": 3804,
      "##ot": 3805,
      "commonly": 3806,
      "alive": 3807,
      "##za": 3808,
      "letters": 3809,
      "concept": 3810,
      "conducted": 3811,
      "wearing": 3812,
      "happen": 3813,
      "bought": 3814,
      "becomes": 3815,
      "holy": 3816,
      "gets": 3817,
      "ocean": 3818,
      "defeat": 3819,
      "languages": 3820,
      "purchased": 3821,
      "coffee": 3822,
      "occurred": 3823,
      "titled": 3824,
      "##q": 3825,
      "declared": 3826,
      "applied": 3827,
      "sciences": 3828,
      "concert": 3829,
      "sounds": 3830,
      "jazz": 3831,
      "brain": 3832,
      "##me": 3833,
      "painting": 3834,
      "fleet": 3835,
      "tax": 3836,
      "nick": 3837,
      "##ius": 3838,
      "michigan": 3839,
      "count": 3840,
      "animals": 3841,
      "leaders": 3842,
      "episodes": 3843,
      "##line": 3844,
      "content": 3845,
      "##den": 3846,
      "birth": 3847,
      "##it": 3848,
      "clubs": 3849,
      "64": 3850,
      "palace": 3851,
      "critical": 3852,
      "refused": 3853,
      "fair": 3854,
      "leg": 3855,
      "laughed": 3856,
      "returning": 3857,
      "surrounding": 3858,
      "participated": 3859,
      "formation": 3860,
      "lifted": 3861,
      "pointed": 3862,
      "connected": 3863,
      "rome": 3864,
      "medicine": 3865,
      "laid": 3866,
      "taylor": 3867,
      "santa": 3868,
      "powers": 3869,
      "adam": 3870,
      "tall": 3871,
      "shared": 3872,
      "focused": 3873,
      "knowing": 3874,
      "yards": 3875,
      "entrance": 3876,
      "falls": 3877,
      "##wa": 3878,
      "calling": 3879,
      "##ad": 3880,
      "sources": 3881,
      "chosen": 3882,
      "beneath": 3883,
      "resources": 3884,
      "yard": 3885,
      "##ite": 3886,
      "nominated": 3887,
      "silence": 3888,
      "zone": 3889,
      "defined": 3890,
      "##que": 3891,
      "gained": 3892,
      "thirty": 3893,
      "38": 3894,
      "bodies": 3895,
      "moon": 3896,
      "##ard": 3897,
      "adopted": 3898,
      "christmas": 3899,
      "widely": 3900,
      "register": 3901,
      "apart": 3902,
      "iran": 3903,
      "premier": 3904,
      "serves": 3905,
      "du": 3906,
      "unknown": 3907,
      "parties": 3908,
      "##les": 3909,
      "generation": 3910,
      "##ff": 3911,
      "continues": 3912,
      "quick": 3913,
      "fields": 3914,
      "brigade": 3915,
      "quiet": 3916,
      "teaching": 3917,
      "clothes": 3918,
      "impact": 3919,
      "weapons": 3920,
      "partner": 3921,
      "flat": 3922,
      "theater": 3923,
      "supreme": 3924,
      "1938": 3925,
      "37": 3926,
      "relations": 3927,
      "##tor": 3928,
      "plants": 3929,
      "suffered": 3930,
      "1936": 3931,
      "wilson": 3932,
      "kids": 3933,
      "begins": 3934,
      "##age": 3935,
      "1918": 3936,
      "seats": 3937,
      "armed": 3938,
      "internet": 3939,
      "models": 3940,
      "worth": 3941,
      "laws": 3942,
      "400": 3943,
      "communities": 3944,
      "classes": 3945,
      "background": 3946,
      "knows": 3947,
      "thanks": 3948,
      "quarter": 3949,
      "reaching": 3950,
      "humans": 3951,
      "carry": 3952,
      "killing": 3953,
      "format": 3954,
      "kong": 3955,
      "hong": 3956,
      "setting": 3957,
      "75": 3958,
      "architecture": 3959,
      "disease": 3960,
      "railroad": 3961,
      "inc": 3962,
      "possibly": 3963,
      "wish": 3964,
      "arthur": 3965,
      "thoughts": 3966,
      "harry": 3967,
      "doors": 3968,
      "density": 3969,
      "##di": 3970,
      "crowd": 3971,
      "illinois": 3972,
      "stomach": 3973,
      "tone": 3974,
      "unique": 3975,
      "reports": 3976,
      "anyway": 3977,
      "##ir": 3978,
      "liberal": 3979,
      "der": 3980,
      "vehicle": 3981,
      "thick": 3982,
      "dry": 3983,
      "drug": 3984,
      "faced": 3985,
      "largely": 3986,
      "facility": 3987,
      "theme": 3988,
      "holds": 3989,
      "creation": 3990,
      "strange": 3991,
      "colonel": 3992,
      "##mi": 3993,
      "revolution": 3994,
      "bell": 3995,
      "politics": 3996,
      "turns": 3997,
      "silent": 3998,
      "rail": 3999,
      "relief": 4000,
      "independence": 4001,
      "combat": 4002,
      "shape": 4003,
      "write": 4004,
      "determined": 4005,
      "sales": 4006,
      "learned": 4007,
      "4th": 4008,
      "finger": 4009,
      "oxford": 4010,
      "providing": 4011,
      "1937": 4012,
      "heritage": 4013,
      "fiction": 4014,
      "situated": 4015,
      "designated": 4016,
      "allowing": 4017,
      "distribution": 4018,
      "hosted": 4019,
      "##est": 4020,
      "sight": 4021,
      "interview": 4022,
      "estimated": 4023,
      "reduced": 4024,
      "##ria": 4025,
      "toronto": 4026,
      "footballer": 4027,
      "keeping": 4028,
      "guys": 4029,
      "damn": 4030,
      "claim": 4031,
      "motion": 4032,
      "sport": 4033,
      "sixth": 4034,
      "stayed": 4035,
      "##ze": 4036,
      "en": 4037,
      "rear": 4038,
      "receive": 4039,
      "handed": 4040,
      "twelve": 4041,
      "dress": 4042,
      "audience": 4043,
      "granted": 4044,
      "brazil": 4045,
      "##well": 4046,
      "spirit": 4047,
      "##ated": 4048,
      "noticed": 4049,
      "etc": 4050,
      "olympic": 4051,
      "representative": 4052,
      "eric": 4053,
      "tight": 4054,
      "trouble": 4055,
      "reviews": 4056,
      "drink": 4057,
      "vampire": 4058,
      "missing": 4059,
      "roles": 4060,
      "ranked": 4061,
      "newly": 4062,
      "household": 4063,
      "finals": 4064,
      "wave": 4065,
      "critics": 4066,
      "##ee": 4067,
      "phase": 4068,
      "massachusetts": 4069,
      "pilot": 4070,
      "unlike": 4071,
      "philadelphia": 4072,
      "bright": 4073,
      "guns": 4074,
      "crown": 4075,
      "organizations": 4076,
      "roof": 4077,
      "42": 4078,
      "respectively": 4079,
      "clearly": 4080,
      "tongue": 4081,
      "marked": 4082,
      "circle": 4083,
      "fox": 4084,
      "korea": 4085,
      "bronze": 4086,
      "brian": 4087,
      "expanded": 4088,
      "sexual": 4089,
      "supply": 4090,
      "yourself": 4091,
      "inspired": 4092,
      "labour": 4093,
      "fc": 4094,
      "##ah": 4095,
      "reference": 4096,
      "vision": 4097,
      "draft": 4098,
      "connection": 4099,
      "brand": 4100,
      "reasons": 4101,
      "1935": 4102,
      "classic": 4103,
      "driving": 4104,
      "trip": 4105,
      "jesus": 4106,
      "cells": 4107,
      "entry": 4108,
      "1920": 4109,
      "neither": 4110,
      "trail": 4111,
      "claims": 4112,
      "atlantic": 4113,
      "orders": 4114,
      "labor": 4115,
      "nose": 4116,
      "afraid": 4117,
      "identified": 4118,
      "intelligence": 4119,
      "calls": 4120,
      "cancer": 4121,
      "attacked": 4122,
      "passing": 4123,
      "stephen": 4124,
      "positions": 4125,
      "imperial": 4126,
      "grey": 4127,
      "jason": 4128,
      "39": 4129,
      "sunday": 4130,
      "48": 4131,
      "swedish": 4132,
      "avoid": 4133,
      "extra": 4134,
      "uncle": 4135,
      "message": 4136,
      "covers": 4137,
      "allows": 4138,
      "surprise": 4139,
      "materials": 4140,
      "fame": 4141,
      "hunter": 4142,
      "##ji": 4143,
      "1930": 4144,
      "citizens": 4145,
      "figures": 4146,
      "davis": 4147,
      "environmental": 4148,
      "confirmed": 4149,
      "shit": 4150,
      "titles": 4151,
      "di": 4152,
      "performing": 4153,
      "difference": 4154,
      "acts": 4155,
      "attacks": 4156,
      "##ov": 4157,
      "existing": 4158,
      "votes": 4159,
      "opportunity": 4160,
      "nor": 4161,
      "shop": 4162,
      "entirely": 4163,
      "trains": 4164,
      "opposite": 4165,
      "pakistan": 4166,
      "##pa": 4167,
      "develop": 4168,
      "resulted": 4169,
      "representatives": 4170,
      "actions": 4171,
      "reality": 4172,
      "pressed": 4173,
      "##ish": 4174,
      "barely": 4175,
      "wine": 4176,
      "conversation": 4177,
      "faculty": 4178,
      "northwest": 4179,
      "ends": 4180,
      "documentary": 4181,
      "nuclear": 4182,
      "stock": 4183,
      "grace": 4184,
      "sets": 4185,
      "eat": 4186,
      "alternative": 4187,
      "##ps": 4188,
      "bag": 4189,
      "resulting": 4190,
      "creating": 4191,
      "surprised": 4192,
      "cemetery": 4193,
      "1919": 4194,
      "drop": 4195,
      "finding": 4196,
      "sarah": 4197,
      "cricket": 4198,
      "streets": 4199,
      "tradition": 4200,
      "ride": 4201,
      "1933": 4202,
      "exhibition": 4203,
      "target": 4204,
      "ear": 4205,
      "explained": 4206,
      "rain": 4207,
      "composer": 4208,
      "injury": 4209,
      "apartment": 4210,
      "municipal": 4211,
      "educational": 4212,
      "occupied": 4213,
      "netherlands": 4214,
      "clean": 4215,
      "billion": 4216,
      "constitution": 4217,
      "learn": 4218,
      "1914": 4219,
      "maximum": 4220,
      "classical": 4221,
      "francis": 4222,
      "lose": 4223,
      "opposition": 4224,
      "jose": 4225,
      "ontario": 4226,
      "bear": 4227,
      "core": 4228,
      "hills": 4229,
      "rolled": 4230,
      "ending": 4231,
      "drawn": 4232,
      "permanent": 4233,
      "fun": 4234,
      "##tes": 4235,
      "##lla": 4236,
      "lewis": 4237,
      "sites": 4238,
      "chamber": 4239,
      "ryan": 4240,
      "##way": 4241,
      "scoring": 4242,
      "height": 4243,
      "1934": 4244,
      "##house": 4245,
      "lyrics": 4246,
      "staring": 4247,
      "55": 4248,
      "officials": 4249,
      "1917": 4250,
      "snow": 4251,
      "oldest": 4252,
      "##tic": 4253,
      "orange": 4254,
      "##ger": 4255,
      "qualified": 4256,
      "interior": 4257,
      "apparently": 4258,
      "succeeded": 4259,
      "thousand": 4260,
      "dinner": 4261,
      "lights": 4262,
      "existence": 4263,
      "fans": 4264,
      "heavily": 4265,
      "41": 4266,
      "greatest": 4267,
      "conservative": 4268,
      "send": 4269,
      "bowl": 4270,
      "plus": 4271,
      "enter": 4272,
      "catch": 4273,
      "##un": 4274,
      "economy": 4275,
      "duty": 4276,
      "1929": 4277,
      "speech": 4278,
      "authorities": 4279,
      "princess": 4280,
      "performances": 4281,
      "versions": 4282,
      "shall": 4283,
      "graduate": 4284,
      "pictures": 4285,
      "effective": 4286,
      "remembered": 4287,
      "poetry": 4288,
      "desk": 4289,
      "crossed": 4290,
      "starring": 4291,
      "starts": 4292,
      "passenger": 4293,
      "sharp": 4294,
      "##ant": 4295,
      "acres": 4296,
      "ass": 4297,
      "weather": 4298,
      "falling": 4299,
      "rank": 4300,
      "fund": 4301,
      "supporting": 4302,
      "check": 4303,
      "adult": 4304,
      "publishing": 4305,
      "heads": 4306,
      "cm": 4307,
      "southeast": 4308,
      "lane": 4309,
      "##burg": 4310,
      "application": 4311,
      "bc": 4312,
      "##ura": 4313,
      "les": 4314,
      "condition": 4315,
      "transfer": 4316,
      "prevent": 4317,
      "display": 4318,
      "ex": 4319,
      "regions": 4320,
      "earl": 4321,
      "federation": 4322,
      "cool": 4323,
      "relatively": 4324,
      "answered": 4325,
      "besides": 4326,
      "1928": 4327,
      "obtained": 4328,
      "portion": 4329,
      "##town": 4330,
      "mix": 4331,
      "##ding": 4332,
      "reaction": 4333,
      "liked": 4334,
      "dean": 4335,
      "express": 4336,
      "peak": 4337,
      "1932": 4338,
      "##tte": 4339,
      "counter": 4340,
      "religion": 4341,
      "chain": 4342,
      "rare": 4343,
      "miller": 4344,
      "convention": 4345,
      "aid": 4346,
      "lie": 4347,
      "vehicles": 4348,
      "mobile": 4349,
      "perform": 4350,
      "squad": 4351,
      "wonder": 4352,
      "lying": 4353,
      "crazy": 4354,
      "sword": 4355,
      "##ping": 4356,
      "attempted": 4357,
      "centuries": 4358,
      "weren": 4359,
      "philosophy": 4360,
      "category": 4361,
      "##ize": 4362,
      "anna": 4363,
      "interested": 4364,
      "47": 4365,
      "sweden": 4366,
      "wolf": 4367,
      "frequently": 4368,
      "abandoned": 4369,
      "kg": 4370,
      "literary": 4371,
      "alliance": 4372,
      "task": 4373,
      "entitled": 4374,
      "##ay": 4375,
      "threw": 4376,
      "promotion": 4377,
      "factory": 4378,
      "tiny": 4379,
      "soccer": 4380,
      "visited": 4381,
      "matt": 4382,
      "fm": 4383,
      "achieved": 4384,
      "52": 4385,
      "defence": 4386,
      "internal": 4387,
      "persian": 4388,
      "43": 4389,
      "methods": 4390,
      "##ging": 4391,
      "arrested": 4392,
      "otherwise": 4393,
      "cambridge": 4394,
      "programming": 4395,
      "villages": 4396,
      "elementary": 4397,
      "districts": 4398,
      "rooms": 4399,
      "criminal": 4400,
      "conflict": 4401,
      "worry": 4402,
      "trained": 4403,
      "1931": 4404,
      "attempts": 4405,
      "waited": 4406,
      "signal": 4407,
      "bird": 4408,
      "truck": 4409,
      "subsequent": 4410,
      "programme": 4411,
      "##ol": 4412,
      "ad": 4413,
      "49": 4414,
      "communist": 4415,
      "details": 4416,
      "faith": 4417,
      "sector": 4418,
      "patrick": 4419,
      "carrying": 4420,
      "laugh": 4421,
      "##ss": 4422,
      "controlled": 4423,
      "korean": 4424,
      "showing": 4425,
      "origin": 4426,
      "fuel": 4427,
      "evil": 4428,
      "1927": 4429,
      "##ent": 4430,
      "brief": 4431,
      "identity": 4432,
      "darkness": 4433,
      "address": 4434,
      "pool": 4435,
      "missed": 4436,
      "publication": 4437,
      "web": 4438,
      "planet": 4439,
      "ian": 4440,
      "anne": 4441,
      "wings": 4442,
      "invited": 4443,
      "##tt": 4444,
      "briefly": 4445,
      "standards": 4446,
      "kissed": 4447,
      "##be": 4448,
      "ideas": 4449,
      "climate": 4450,
      "causing": 4451,
      "walter": 4452,
      "worse": 4453,
      "albert": 4454,
      "articles": 4455,
      "winners": 4456,
      "desire": 4457,
      "aged": 4458,
      "northeast": 4459,
      "dangerous": 4460,
      "gate": 4461,
      "doubt": 4462,
      "1922": 4463,
      "wooden": 4464,
      "multi": 4465,
      "##ky": 4466,
      "poet": 4467,
      "rising": 4468,
      "funding": 4469,
      "46": 4470,
      "communications": 4471,
      "communication": 4472,
      "violence": 4473,
      "copies": 4474,
      "prepared": 4475,
      "ford": 4476,
      "investigation": 4477,
      "skills": 4478,
      "1924": 4479,
      "pulling": 4480,
      "electronic": 4481,
      "##ak": 4482,
      "##ial": 4483,
      "##han": 4484,
      "containing": 4485,
      "ultimately": 4486,
      "offices": 4487,
      "singing": 4488,
      "understanding": 4489,
      "restaurant": 4490,
      "tomorrow": 4491,
      "fashion": 4492,
      "christ": 4493,
      "ward": 4494,
      "da": 4495,
      "pope": 4496,
      "stands": 4497,
      "5th": 4498,
      "flow": 4499,
      "studios": 4500,
      "aired": 4501,
      "commissioned": 4502,
      "contained": 4503,
      "exist": 4504,
      "fresh": 4505,
      "americans": 4506,
      "##per": 4507,
      "wrestling": 4508,
      "approved": 4509,
      "kid": 4510,
      "employed": 4511,
      "respect": 4512,
      "suit": 4513,
      "1925": 4514,
      "angel": 4515,
      "asking": 4516,
      "increasing": 4517,
      "frame": 4518,
      "angry": 4519,
      "selling": 4520,
      "1950s": 4521,
      "thin": 4522,
      "finds": 4523,
      "##nd": 4524,
      "temperature": 4525,
      "statement": 4526,
      "ali": 4527,
      "explain": 4528,
      "inhabitants": 4529,
      "towns": 4530,
      "extensive": 4531,
      "narrow": 4532,
      "51": 4533,
      "jane": 4534,
      "flowers": 4535,
      "images": 4536,
      "promise": 4537,
      "somewhere": 4538,
      "object": 4539,
      "fly": 4540,
      "closely": 4541,
      "##ls": 4542,
      "1912": 4543,
      "bureau": 4544,
      "cape": 4545,
      "1926": 4546,
      "weekly": 4547,
      "presidential": 4548,
      "legislative": 4549,
      "1921": 4550,
      "##ai": 4551,
      "##au": 4552,
      "launch": 4553,
      "founding": 4554,
      "##ny": 4555,
      "978": 4556,
      "##ring": 4557,
      "artillery": 4558,
      "strike": 4559,
      "un": 4560,
      "institutions": 4561,
      "roll": 4562,
      "writers": 4563,
      "landing": 4564,
      "chose": 4565,
      "kevin": 4566,
      "anymore": 4567,
      "pp": 4568,
      "##ut": 4569,
      "attorney": 4570,
      "fit": 4571,
      "dan": 4572,
      "billboard": 4573,
      "receiving": 4574,
      "agricultural": 4575,
      "breaking": 4576,
      "sought": 4577,
      "dave": 4578,
      "admitted": 4579,
      "lands": 4580,
      "mexican": 4581,
      "##bury": 4582,
      "charlie": 4583,
      "specifically": 4584,
      "hole": 4585,
      "iv": 4586,
      "howard": 4587,
      "credit": 4588,
      "moscow": 4589,
      "roads": 4590,
      "accident": 4591,
      "1923": 4592,
      "proved": 4593,
      "wear": 4594,
      "struck": 4595,
      "hey": 4596,
      "guards": 4597,
      "stuff": 4598,
      "slid": 4599,
      "expansion": 4600,
      "1915": 4601,
      "cat": 4602,
      "anthony": 4603,
      "##kin": 4604,
      "melbourne": 4605,
      "opposed": 4606,
      "sub": 4607,
      "southwest": 4608,
      "architect": 4609,
      "failure": 4610,
      "plane": 4611,
      "1916": 4612,
      "##ron": 4613,
      "map": 4614,
      "camera": 4615,
      "tank": 4616,
      "listen": 4617,
      "regarding": 4618,
      "wet": 4619,
      "introduction": 4620,
      "metropolitan": 4621,
      "link": 4622,
      "ep": 4623,
      "fighter": 4624,
      "inch": 4625,
      "grown": 4626,
      "gene": 4627,
      "anger": 4628,
      "fixed": 4629,
      "buy": 4630,
      "dvd": 4631,
      "khan": 4632,
      "domestic": 4633,
      "worldwide": 4634,
      "chapel": 4635,
      "mill": 4636,
      "functions": 4637,
      "examples": 4638,
      "##head": 4639,
      "developing": 4640,
      "1910": 4641,
      "turkey": 4642,
      "hits": 4643,
      "pocket": 4644,
      "antonio": 4645,
      "papers": 4646,
      "grow": 4647,
      "unless": 4648,
      "circuit": 4649,
      "18th": 4650,
      "concerned": 4651,
      "attached": 4652,
      "journalist": 4653,
      "selection": 4654,
      "journey": 4655,
      "converted": 4656,
      "provincial": 4657,
      "painted": 4658,
      "hearing": 4659,
      "aren": 4660,
      "bands": 4661,
      "negative": 4662,
      "aside": 4663,
      "wondered": 4664,
      "knight": 4665,
      "lap": 4666,
      "survey": 4667,
      "ma": 4668,
      "##ow": 4669,
      "noise": 4670,
      "billy": 4671,
      "##ium": 4672,
      "shooting": 4673,
      "guide": 4674,
      "bedroom": 4675,
      "priest": 4676,
      "resistance": 4677,
      "motor": 4678,
      "homes": 4679,
      "sounded": 4680,
      "giant": 4681,
      "##mer": 4682,
      "150": 4683,
      "scenes": 4684,
      "equal": 4685,
      "comic": 4686,
      "patients": 4687,
      "hidden": 4688,
      "solid": 4689,
      "actual": 4690,
      "bringing": 4691,
      "afternoon": 4692,
      "touched": 4693,
      "funds": 4694,
      "wedding": 4695,
      "consisted": 4696,
      "marie": 4697,
      "canal": 4698,
      "sr": 4699,
      "kim": 4700,
      "treaty": 4701,
      "turkish": 4702,
      "recognition": 4703,
      "residence": 4704,
      "cathedral": 4705,
      "broad": 4706,
      "knees": 4707,
      "incident": 4708,
      "shaped": 4709,
      "fired": 4710,
      "norwegian": 4711,
      "handle": 4712,
      "cheek": 4713,
      "contest": 4714,
      "represent": 4715,
      "##pe": 4716,
      "representing": 4717,
      "beauty": 4718,
      "##sen": 4719,
      "birds": 4720,
      "advantage": 4721,
      "emergency": 4722,
      "wrapped": 4723,
      "drawing": 4724,
      "notice": 4725,
      "pink": 4726,
      "broadcasting": 4727,
      "##ong": 4728,
      "somehow": 4729,
      "bachelor": 4730,
      "seventh": 4731,
      "collected": 4732,
      "registered": 4733,
      "establishment": 4734,
      "alan": 4735,
      "assumed": 4736,
      "chemical": 4737,
      "personnel": 4738,
      "roger": 4739,
      "retirement": 4740,
      "jeff": 4741,
      "portuguese": 4742,
      "wore": 4743,
      "tied": 4744,
      "device": 4745,
      "threat": 4746,
      "progress": 4747,
      "advance": 4748,
      "##ised": 4749,
      "banks": 4750,
      "hired": 4751,
      "manchester": 4752,
      "nfl": 4753,
      "teachers": 4754,
      "structures": 4755,
      "forever": 4756,
      "##bo": 4757,
      "tennis": 4758,
      "helping": 4759,
      "saturday": 4760,
      "sale": 4761,
      "applications": 4762,
      "junction": 4763,
      "hip": 4764,
      "incorporated": 4765,
      "neighborhood": 4766,
      "dressed": 4767,
      "ceremony": 4768,
      "##ds": 4769,
      "influenced": 4770,
      "hers": 4771,
      "visual": 4772,
      "stairs": 4773,
      "decades": 4774,
      "inner": 4775,
      "kansas": 4776,
      "hung": 4777,
      "hoped": 4778,
      "gain": 4779,
      "scheduled": 4780,
      "downtown": 4781,
      "engaged": 4782,
      "austria": 4783,
      "clock": 4784,
      "norway": 4785,
      "certainly": 4786,
      "pale": 4787,
      "protected": 4788,
      "1913": 4789,
      "victor": 4790,
      "employees": 4791,
      "plate": 4792,
      "putting": 4793,
      "surrounded": 4794,
      "##ists": 4795,
      "finishing": 4796,
      "blues": 4797,
      "tropical": 4798,
      "##ries": 4799,
      "minnesota": 4800,
      "consider": 4801,
      "philippines": 4802,
      "accept": 4803,
      "54": 4804,
      "retrieved": 4805,
      "1900": 4806,
      "concern": 4807,
      "anderson": 4808,
      "properties": 4809,
      "institution": 4810,
      "gordon": 4811,
      "successfully": 4812,
      "vietnam": 4813,
      "##dy": 4814,
      "backing": 4815,
      "outstanding": 4816,
      "muslim": 4817,
      "crossing": 4818,
      "folk": 4819,
      "producing": 4820,
      "usual": 4821,
      "demand": 4822,
      "occurs": 4823,
      "observed": 4824,
      "lawyer": 4825,
      "educated": 4826,
      "##ana": 4827,
      "kelly": 4828,
      "string": 4829,
      "pleasure": 4830,
      "budget": 4831,
      "items": 4832,
      "quietly": 4833,
      "colorado": 4834,
      "philip": 4835,
      "typical": 4836,
      "##worth": 4837,
      "derived": 4838,
      "600": 4839,
      "survived": 4840,
      "asks": 4841,
      "mental": 4842,
      "##ide": 4843,
      "56": 4844,
      "jake": 4845,
      "jews": 4846,
      "distinguished": 4847,
      "ltd": 4848,
      "1911": 4849,
      "sri": 4850,
      "extremely": 4851,
      "53": 4852,
      "athletic": 4853,
      "loud": 4854,
      "thousands": 4855,
      "worried": 4856,
      "shadow": 4857,
      "transportation": 4858,
      "horses": 4859,
      "weapon": 4860,
      "arena": 4861,
      "importance": 4862,
      "users": 4863,
      "tim": 4864,
      "objects": 4865,
      "contributed": 4866,
      "dragon": 4867,
      "douglas": 4868,
      "aware": 4869,
      "senator": 4870,
      "johnny": 4871,
      "jordan": 4872,
      "sisters": 4873,
      "engines": 4874,
      "flag": 4875,
      "investment": 4876,
      "samuel": 4877,
      "shock": 4878,
      "capable": 4879,
      "clark": 4880,
      "row": 4881,
      "wheel": 4882,
      "refers": 4883,
      "session": 4884,
      "familiar": 4885,
      "biggest": 4886,
      "wins": 4887,
      "hate": 4888,
      "maintained": 4889,
      "drove": 4890,
      "hamilton": 4891,
      "request": 4892,
      "expressed": 4893,
      "injured": 4894,
      "underground": 4895,
      "churches": 4896,
      "walker": 4897,
      "wars": 4898,
      "tunnel": 4899,
      "passes": 4900,
      "stupid": 4901,
      "agriculture": 4902,
      "softly": 4903,
      "cabinet": 4904,
      "regarded": 4905,
      "joining": 4906,
      "indiana": 4907,
      "##ea": 4908,
      "##ms": 4909,
      "push": 4910,
      "dates": 4911,
      "spend": 4912,
      "behavior": 4913,
      "woods": 4914,
      "protein": 4915,
      "gently": 4916,
      "chase": 4917,
      "morgan": 4918,
      "mention": 4919,
      "burning": 4920,
      "wake": 4921,
      "combination": 4922,
      "occur": 4923,
      "mirror": 4924,
      "leads": 4925,
      "jimmy": 4926,
      "indeed": 4927,
      "impossible": 4928,
      "singapore": 4929,
      "paintings": 4930,
      "covering": 4931,
      "##nes": 4932,
      "soldier": 4933,
      "locations": 4934,
      "attendance": 4935,
      "sell": 4936,
      "historian": 4937,
      "wisconsin": 4938,
      "invasion": 4939,
      "argued": 4940,
      "painter": 4941,
      "diego": 4942,
      "changing": 4943,
      "egypt": 4944,
      "##don": 4945,
      "experienced": 4946,
      "inches": 4947,
      "##ku": 4948,
      "missouri": 4949,
      "vol": 4950,
      "grounds": 4951,
      "spoken": 4952,
      "switzerland": 4953,
      "##gan": 4954,
      "reform": 4955,
      "rolling": 4956,
      "ha": 4957,
      "forget": 4958,
      "massive": 4959,
      "resigned": 4960,
      "burned": 4961,
      "allen": 4962,
      "tennessee": 4963,
      "locked": 4964,
      "values": 4965,
      "improved": 4966,
      "##mo": 4967,
      "wounded": 4968,
      "universe": 4969,
      "sick": 4970,
      "dating": 4971,
      "facing": 4972,
      "pack": 4973,
      "purchase": 4974,
      "user": 4975,
      "##pur": 4976,
      "moments": 4977,
      "##ul": 4978,
      "merged": 4979,
      "anniversary": 4980,
      "1908": 4981,
      "coal": 4982,
      "brick": 4983,
      "understood": 4984,
      "causes": 4985,
      "dynasty": 4986,
      "queensland": 4987,
      "establish": 4988,
      "stores": 4989,
      "crisis": 4990,
      "promote": 4991,
      "hoping": 4992,
      "views": 4993,
      "cards": 4994,
      "referee": 4995,
      "extension": 4996,
      "##si": 4997,
      "raise": 4998,
      "arizona": 4999,
      "improve": 5000,
      "colonial": 5001,
      "formal": 5002,
      "charged": 5003,
      "##rt": 5004,
      "palm": 5005,
      "lucky": 5006,
      "hide": 5007,
      "rescue": 5008,
      "faces": 5009,
      "95": 5010,
      "feelings": 5011,
      "candidates": 5012,
      "juan": 5013,
      "##ell": 5014,
      "goods": 5015,
      "6th": 5016,
      "courses": 5017,
      "weekend": 5018,
      "59": 5019,
      "luke": 5020,
      "cash": 5021,
      "fallen": 5022,
      "##om": 5023,
      "delivered": 5024,
      "affected": 5025,
      "installed": 5026,
      "carefully": 5027,
      "tries": 5028,
      "swiss": 5029,
      "hollywood": 5030,
      "costs": 5031,
      "lincoln": 5032,
      "responsibility": 5033,
      "##he": 5034,
      "shore": 5035,
      "file": 5036,
      "proper": 5037,
      "normally": 5038,
      "maryland": 5039,
      "assistance": 5040,
      "jump": 5041,
      "constant": 5042,
      "offering": 5043,
      "friendly": 5044,
      "waters": 5045,
      "persons": 5046,
      "realize": 5047,
      "contain": 5048,
      "trophy": 5049,
      "800": 5050,
      "partnership": 5051,
      "factor": 5052,
      "58": 5053,
      "musicians": 5054,
      "cry": 5055,
      "bound": 5056,
      "oregon": 5057,
      "indicated": 5058,
      "hero": 5059,
      "houston": 5060,
      "medium": 5061,
      "##ure": 5062,
      "consisting": 5063,
      "somewhat": 5064,
      "##ara": 5065,
      "57": 5066,
      "cycle": 5067,
      "##che": 5068,
      "beer": 5069,
      "moore": 5070,
      "frederick": 5071,
      "gotten": 5072,
      "eleven": 5073,
      "worst": 5074,
      "weak": 5075,
      "approached": 5076,
      "arranged": 5077,
      "chin": 5078,
      "loan": 5079,
      "universal": 5080,
      "bond": 5081,
      "fifteen": 5082,
      "pattern": 5083,
      "disappeared": 5084,
      "##ney": 5085,
      "translated": 5086,
      "##zed": 5087,
      "lip": 5088,
      "arab": 5089,
      "capture": 5090,
      "interests": 5091,
      "insurance": 5092,
      "##chi": 5093,
      "shifted": 5094,
      "cave": 5095,
      "prix": 5096,
      "warning": 5097,
      "sections": 5098,
      "courts": 5099,
      "coat": 5100,
      "plot": 5101,
      "smell": 5102,
      "feed": 5103,
      "golf": 5104,
      "favorite": 5105,
      "maintain": 5106,
      "knife": 5107,
      "vs": 5108,
      "voted": 5109,
      "degrees": 5110,
      "finance": 5111,
      "quebec": 5112,
      "opinion": 5113,
      "translation": 5114,
      "manner": 5115,
      "ruled": 5116,
      "operate": 5117,
      "productions": 5118,
      "choose": 5119,
      "musician": 5120,
      "discovery": 5121,
      "confused": 5122,
      "tired": 5123,
      "separated": 5124,
      "stream": 5125,
      "techniques": 5126,
      "committed": 5127,
      "attend": 5128,
      "ranking": 5129,
      "kings": 5130,
      "throw": 5131,
      "passengers": 5132,
      "measure": 5133,
      "horror": 5134,
      "fan": 5135,
      "mining": 5136,
      "sand": 5137,
      "danger": 5138,
      "salt": 5139,
      "calm": 5140,
      "decade": 5141,
      "dam": 5142,
      "require": 5143,
      "runner": 5144,
      "##ik": 5145,
      "rush": 5146,
      "associate": 5147,
      "greece": 5148,
      "##ker": 5149,
      "rivers": 5150,
      "consecutive": 5151,
      "matthew": 5152,
      "##ski": 5153,
      "sighed": 5154,
      "sq": 5155,
      "documents": 5156,
      "steam": 5157,
      "edited": 5158,
      "closing": 5159,
      "tie": 5160,
      "accused": 5161,
      "1905": 5162,
      "##ini": 5163,
      "islamic": 5164,
      "distributed": 5165,
      "directors": 5166,
      "organisation": 5167,
      "bruce": 5168,
      "7th": 5169,
      "breathing": 5170,
      "mad": 5171,
      "lit": 5172,
      "arrival": 5173,
      "concrete": 5174,
      "taste": 5175,
      "08": 5176,
      "composition": 5177,
      "shaking": 5178,
      "faster": 5179,
      "amateur": 5180,
      "adjacent": 5181,
      "stating": 5182,
      "1906": 5183,
      "twin": 5184,
      "flew": 5185,
      "##ran": 5186,
      "tokyo": 5187,
      "publications": 5188,
      "##tone": 5189,
      "obviously": 5190,
      "ridge": 5191,
      "storage": 5192,
      "1907": 5193,
      "carl": 5194,
      "pages": 5195,
      "concluded": 5196,
      "desert": 5197,
      "driven": 5198,
      "universities": 5199,
      "ages": 5200,
      "terminal": 5201,
      "sequence": 5202,
      "borough": 5203,
      "250": 5204,
      "constituency": 5205,
      "creative": 5206,
      "cousin": 5207,
      "economics": 5208,
      "dreams": 5209,
      "margaret": 5210,
      "notably": 5211,
      "reduce": 5212,
      "montreal": 5213,
      "mode": 5214,
      "17th": 5215,
      "ears": 5216,
      "saved": 5217,
      "jan": 5218,
      "vocal": 5219,
      "##ica": 5220,
      "1909": 5221,
      "andy": 5222,
      "##jo": 5223,
      "riding": 5224,
      "roughly": 5225,
      "threatened": 5226,
      "##ise": 5227,
      "meters": 5228,
      "meanwhile": 5229,
      "landed": 5230,
      "compete": 5231,
      "repeated": 5232,
      "grass": 5233,
      "czech": 5234,
      "regularly": 5235,
      "charges": 5236,
      "tea": 5237,
      "sudden": 5238,
      "appeal": 5239,
      "##ung": 5240,
      "solution": 5241,
      "describes": 5242,
      "pierre": 5243,
      "classification": 5244,
      "glad": 5245,
      "parking": 5246,
      "##ning": 5247,
      "belt": 5248,
      "physics": 5249,
      "99": 5250,
      "rachel": 5251,
      "add": 5252,
      "hungarian": 5253,
      "participate": 5254,
      "expedition": 5255,
      "damaged": 5256,
      "gift": 5257,
      "childhood": 5258,
      "85": 5259,
      "fifty": 5260,
      "##red": 5261,
      "mathematics": 5262,
      "jumped": 5263,
      "letting": 5264,
      "defensive": 5265,
      "mph": 5266,
      "##ux": 5267,
      "##gh": 5268,
      "testing": 5269,
      "##hip": 5270,
      "hundreds": 5271,
      "shoot": 5272,
      "owners": 5273,
      "matters": 5274,
      "smoke": 5275,
      "israeli": 5276,
      "kentucky": 5277,
      "dancing": 5278,
      "mounted": 5279,
      "grandfather": 5280,
      "emma": 5281,
      "designs": 5282,
      "profit": 5283,
      "argentina": 5284,
      "##gs": 5285,
      "truly": 5286,
      "li": 5287,
      "lawrence": 5288,
      "cole": 5289,
      "begun": 5290,
      "detroit": 5291,
      "willing": 5292,
      "branches": 5293,
      "smiling": 5294,
      "decide": 5295,
      "miami": 5296,
      "enjoyed": 5297,
      "recordings": 5298,
      "##dale": 5299,
      "poverty": 5300,
      "ethnic": 5301,
      "gay": 5302,
      "##bi": 5303,
      "gary": 5304,
      "arabic": 5305,
      "09": 5306,
      "accompanied": 5307,
      "##one": 5308,
      "##ons": 5309,
      "fishing": 5310,
      "determine": 5311,
      "residential": 5312,
      "acid": 5313,
      "##ary": 5314,
      "alice": 5315,
      "returns": 5316,
      "starred": 5317,
      "mail": 5318,
      "##ang": 5319,
      "jonathan": 5320,
      "strategy": 5321,
      "##ue": 5322,
      "net": 5323,
      "forty": 5324,
      "cook": 5325,
      "businesses": 5326,
      "equivalent": 5327,
      "commonwealth": 5328,
      "distinct": 5329,
      "ill": 5330,
      "##cy": 5331,
      "seriously": 5332,
      "##ors": 5333,
      "##ped": 5334,
      "shift": 5335,
      "harris": 5336,
      "replace": 5337,
      "rio": 5338,
      "imagine": 5339,
      "formula": 5340,
      "ensure": 5341,
      "##ber": 5342,
      "additionally": 5343,
      "scheme": 5344,
      "conservation": 5345,
      "occasionally": 5346,
      "purposes": 5347,
      "feels": 5348,
      "favor": 5349,
      "##and": 5350,
      "##ore": 5351,
      "1930s": 5352,
      "contrast": 5353,
      "hanging": 5354,
      "hunt": 5355,
      "movies": 5356,
      "1904": 5357,
      "instruments": 5358,
      "victims": 5359,
      "danish": 5360,
      "christopher": 5361,
      "busy": 5362,
      "demon": 5363,
      "sugar": 5364,
      "earliest": 5365,
      "colony": 5366,
      "studying": 5367,
      "balance": 5368,
      "duties": 5369,
      "##ks": 5370,
      "belgium": 5371,
      "slipped": 5372,
      "carter": 5373,
      "05": 5374,
      "visible": 5375,
      "stages": 5376,
      "iraq": 5377,
      "fifa": 5378,
      "##im": 5379,
      "commune": 5380,
      "forming": 5381,
      "zero": 5382,
      "07": 5383,
      "continuing": 5384,
      "talked": 5385,
      "counties": 5386,
      "legend": 5387,
      "bathroom": 5388,
      "option": 5389,
      "tail": 5390,
      "clay": 5391,
      "daughters": 5392,
      "afterwards": 5393,
      "severe": 5394,
      "jaw": 5395,
      "visitors": 5396,
      "##ded": 5397,
      "devices": 5398,
      "aviation": 5399,
      "russell": 5400,
      "kate": 5401,
      "##vi": 5402,
      "entering": 5403,
      "subjects": 5404,
      "##ino": 5405,
      "temporary": 5406,
      "swimming": 5407,
      "forth": 5408,
      "smooth": 5409,
      "ghost": 5410,
      "audio": 5411,
      "bush": 5412,
      "operates": 5413,
      "rocks": 5414,
      "movements": 5415,
      "signs": 5416,
      "eddie": 5417,
      "##tz": 5418,
      "ann": 5419,
      "voices": 5420,
      "honorary": 5421,
      "06": 5422,
      "memories": 5423,
      "dallas": 5424,
      "pure": 5425,
      "measures": 5426,
      "racial": 5427,
      "promised": 5428,
      "66": 5429,
      "harvard": 5430,
      "ceo": 5431,
      "16th": 5432,
      "parliamentary": 5433,
      "indicate": 5434,
      "benefit": 5435,
      "flesh": 5436,
      "dublin": 5437,
      "louisiana": 5438,
      "1902": 5439,
      "1901": 5440,
      "patient": 5441,
      "sleeping": 5442,
      "1903": 5443,
      "membership": 5444,
      "coastal": 5445,
      "medieval": 5446,
      "wanting": 5447,
      "element": 5448,
      "scholars": 5449,
      "rice": 5450,
      "62": 5451,
      "limit": 5452,
      "survive": 5453,
      "makeup": 5454,
      "rating": 5455,
      "definitely": 5456,
      "collaboration": 5457,
      "obvious": 5458,
      "##tan": 5459,
      "boss": 5460,
      "ms": 5461,
      "baron": 5462,
      "birthday": 5463,
      "linked": 5464,
      "soil": 5465,
      "diocese": 5466,
      "##lan": 5467,
      "ncaa": 5468,
      "##mann": 5469,
      "offensive": 5470,
      "shell": 5471,
      "shouldn": 5472,
      "waist": 5473,
      "##tus": 5474,
      "plain": 5475,
      "ross": 5476,
      "organ": 5477,
      "resolution": 5478,
      "manufacturing": 5479,
      "adding": 5480,
      "relative": 5481,
      "kennedy": 5482,
      "98": 5483,
      "whilst": 5484,
      "moth": 5485,
      "marketing": 5486,
      "gardens": 5487,
      "crash": 5488,
      "72": 5489,
      "heading": 5490,
      "partners": 5491,
      "credited": 5492,
      "carlos": 5493,
      "moves": 5494,
      "cable": 5495,
      "##zi": 5496,
      "marshall": 5497,
      "##out": 5498,
      "depending": 5499,
      "bottle": 5500,
      "represents": 5501,
      "rejected": 5502,
      "responded": 5503,
      "existed": 5504,
      "04": 5505,
      "jobs": 5506,
      "denmark": 5507,
      "lock": 5508,
      "##ating": 5509,
      "treated": 5510,
      "graham": 5511,
      "routes": 5512,
      "talent": 5513,
      "commissioner": 5514,
      "drugs": 5515,
      "secure": 5516,
      "tests": 5517,
      "reign": 5518,
      "restored": 5519,
      "photography": 5520,
      "##gi": 5521,
      "contributions": 5522,
      "oklahoma": 5523,
      "designer": 5524,
      "disc": 5525,
      "grin": 5526,
      "seattle": 5527,
      "robin": 5528,
      "paused": 5529,
      "atlanta": 5530,
      "unusual": 5531,
      "##gate": 5532,
      "praised": 5533,
      "las": 5534,
      "laughing": 5535,
      "satellite": 5536,
      "hungary": 5537,
      "visiting": 5538,
      "##sky": 5539,
      "interesting": 5540,
      "factors": 5541,
      "deck": 5542,
      "poems": 5543,
      "norman": 5544,
      "##water": 5545,
      "stuck": 5546,
      "speaker": 5547,
      "rifle": 5548,
      "domain": 5549,
      "premiered": 5550,
      "##her": 5551,
      "dc": 5552,
      "comics": 5553,
      "actors": 5554,
      "01": 5555,
      "reputation": 5556,
      "eliminated": 5557,
      "8th": 5558,
      "ceiling": 5559,
      "prisoners": 5560,
      "script": 5561,
      "##nce": 5562,
      "leather": 5563,
      "austin": 5564,
      "mississippi": 5565,
      "rapidly": 5566,
      "admiral": 5567,
      "parallel": 5568,
      "charlotte": 5569,
      "guilty": 5570,
      "tools": 5571,
      "gender": 5572,
      "divisions": 5573,
      "fruit": 5574,
      "##bs": 5575,
      "laboratory": 5576,
      "nelson": 5577,
      "fantasy": 5578,
      "marry": 5579,
      "rapid": 5580,
      "aunt": 5581,
      "tribe": 5582,
      "requirements": 5583,
      "aspects": 5584,
      "suicide": 5585,
      "amongst": 5586,
      "adams": 5587,
      "bone": 5588,
      "ukraine": 5589,
      "abc": 5590,
      "kick": 5591,
      "sees": 5592,
      "edinburgh": 5593,
      "clothing": 5594,
      "column": 5595,
      "rough": 5596,
      "gods": 5597,
      "hunting": 5598,
      "broadway": 5599,
      "gathered": 5600,
      "concerns": 5601,
      "##ek": 5602,
      "spending": 5603,
      "ty": 5604,
      "12th": 5605,
      "snapped": 5606,
      "requires": 5607,
      "solar": 5608,
      "bones": 5609,
      "cavalry": 5610,
      "##tta": 5611,
      "iowa": 5612,
      "drinking": 5613,
      "waste": 5614,
      "index": 5615,
      "franklin": 5616,
      "charity": 5617,
      "thompson": 5618,
      "stewart": 5619,
      "tip": 5620,
      "flash": 5621,
      "landscape": 5622,
      "friday": 5623,
      "enjoy": 5624,
      "singh": 5625,
      "poem": 5626,
      "listening": 5627,
      "##back": 5628,
      "eighth": 5629,
      "fred": 5630,
      "differences": 5631,
      "adapted": 5632,
      "bomb": 5633,
      "ukrainian": 5634,
      "surgery": 5635,
      "corporate": 5636,
      "masters": 5637,
      "anywhere": 5638,
      "##more": 5639,
      "waves": 5640,
      "odd": 5641,
      "sean": 5642,
      "portugal": 5643,
      "orleans": 5644,
      "dick": 5645,
      "debate": 5646,
      "kent": 5647,
      "eating": 5648,
      "puerto": 5649,
      "cleared": 5650,
      "96": 5651,
      "expect": 5652,
      "cinema": 5653,
      "97": 5654,
      "guitarist": 5655,
      "blocks": 5656,
      "electrical": 5657,
      "agree": 5658,
      "involving": 5659,
      "depth": 5660,
      "dying": 5661,
      "panel": 5662,
      "struggle": 5663,
      "##ged": 5664,
      "peninsula": 5665,
      "adults": 5666,
      "novels": 5667,
      "emerged": 5668,
      "vienna": 5669,
      "metro": 5670,
      "debuted": 5671,
      "shoes": 5672,
      "tamil": 5673,
      "songwriter": 5674,
      "meets": 5675,
      "prove": 5676,
      "beating": 5677,
      "instance": 5678,
      "heaven": 5679,
      "scared": 5680,
      "sending": 5681,
      "marks": 5682,
      "artistic": 5683,
      "passage": 5684,
      "superior": 5685,
      "03": 5686,
      "significantly": 5687,
      "shopping": 5688,
      "##tive": 5689,
      "retained": 5690,
      "##izing": 5691,
      "malaysia": 5692,
      "technique": 5693,
      "cheeks": 5694,
      "##ola": 5695,
      "warren": 5696,
      "maintenance": 5697,
      "destroy": 5698,
      "extreme": 5699,
      "allied": 5700,
      "120": 5701,
      "appearing": 5702,
      "##yn": 5703,
      "fill": 5704,
      "advice": 5705,
      "alabama": 5706,
      "qualifying": 5707,
      "policies": 5708,
      "cleveland": 5709,
      "hat": 5710,
      "battery": 5711,
      "smart": 5712,
      "authors": 5713,
      "10th": 5714,
      "soundtrack": 5715,
      "acted": 5716,
      "dated": 5717,
      "lb": 5718,
      "glance": 5719,
      "equipped": 5720,
      "coalition": 5721,
      "funny": 5722,
      "outer": 5723,
      "ambassador": 5724,
      "roy": 5725,
      "possibility": 5726,
      "couples": 5727,
      "campbell": 5728,
      "dna": 5729,
      "loose": 5730,
      "ethan": 5731,
      "supplies": 5732,
      "1898": 5733,
      "gonna": 5734,
      "88": 5735,
      "monster": 5736,
      "##res": 5737,
      "shake": 5738,
      "agents": 5739,
      "frequency": 5740,
      "springs": 5741,
      "dogs": 5742,
      "practices": 5743,
      "61": 5744,
      "gang": 5745,
      "plastic": 5746,
      "easier": 5747,
      "suggests": 5748,
      "gulf": 5749,
      "blade": 5750,
      "exposed": 5751,
      "colors": 5752,
      "industries": 5753,
      "markets": 5754,
      "pan": 5755,
      "nervous": 5756,
      "electoral": 5757,
      "charts": 5758,
      "legislation": 5759,
      "ownership": 5760,
      "##idae": 5761,
      "mac": 5762,
      "appointment": 5763,
      "shield": 5764,
      "copy": 5765,
      "assault": 5766,
      "socialist": 5767,
      "abbey": 5768,
      "monument": 5769,
      "license": 5770,
      "throne": 5771,
      "employment": 5772,
      "jay": 5773,
      "93": 5774,
      "replacement": 5775,
      "charter": 5776,
      "cloud": 5777,
      "powered": 5778,
      "suffering": 5779,
      "accounts": 5780,
      "oak": 5781,
      "connecticut": 5782,
      "strongly": 5783,
      "wright": 5784,
      "colour": 5785,
      "crystal": 5786,
      "13th": 5787,
      "context": 5788,
      "welsh": 5789,
      "networks": 5790,
      "voiced": 5791,
      "gabriel": 5792,
      "jerry": 5793,
      "##cing": 5794,
      "forehead": 5795,
      "mp": 5796,
      "##ens": 5797,
      "manage": 5798,
      "schedule": 5799,
      "totally": 5800,
      "remix": 5801,
      "##ii": 5802,
      "forests": 5803,
      "occupation": 5804,
      "print": 5805,
      "nicholas": 5806,
      "brazilian": 5807,
      "strategic": 5808,
      "vampires": 5809,
      "engineers": 5810,
      "76": 5811,
      "roots": 5812,
      "seek": 5813,
      "correct": 5814,
      "instrumental": 5815,
      "und": 5816,
      "alfred": 5817,
      "backed": 5818,
      "hop": 5819,
      "##des": 5820,
      "stanley": 5821,
      "robinson": 5822,
      "traveled": 5823,
      "wayne": 5824,
      "welcome": 5825,
      "austrian": 5826,
      "achieve": 5827,
      "67": 5828,
      "exit": 5829,
      "rates": 5830,
      "1899": 5831,
      "strip": 5832,
      "whereas": 5833,
      "##cs": 5834,
      "sing": 5835,
      "deeply": 5836,
      "adventure": 5837,
      "bobby": 5838,
      "rick": 5839,
      "jamie": 5840,
      "careful": 5841,
      "components": 5842,
      "cap": 5843,
      "useful": 5844,
      "personality": 5845,
      "knee": 5846,
      "##shi": 5847,
      "pushing": 5848,
      "hosts": 5849,
      "02": 5850,
      "protest": 5851,
      "ca": 5852,
      "ottoman": 5853,
      "symphony": 5854,
      "##sis": 5855,
      "63": 5856,
      "boundary": 5857,
      "1890": 5858,
      "processes": 5859,
      "considering": 5860,
      "considerable": 5861,
      "tons": 5862,
      "##work": 5863,
      "##ft": 5864,
      "##nia": 5865,
      "cooper": 5866,
      "trading": 5867,
      "dear": 5868,
      "conduct": 5869,
      "91": 5870,
      "illegal": 5871,
      "apple": 5872,
      "revolutionary": 5873,
      "holiday": 5874,
      "definition": 5875,
      "harder": 5876,
      "##van": 5877,
      "jacob": 5878,
      "circumstances": 5879,
      "destruction": 5880,
      "##lle": 5881,
      "popularity": 5882,
      "grip": 5883,
      "classified": 5884,
      "liverpool": 5885,
      "donald": 5886,
      "baltimore": 5887,
      "flows": 5888,
      "seeking": 5889,
      "honour": 5890,
      "approval": 5891,
      "92": 5892,
      "mechanical": 5893,
      "till": 5894,
      "happening": 5895,
      "statue": 5896,
      "critic": 5897,
      "increasingly": 5898,
      "immediate": 5899,
      "describe": 5900,
      "commerce": 5901,
      "stare": 5902,
      "##ster": 5903,
      "indonesia": 5904,
      "meat": 5905,
      "rounds": 5906,
      "boats": 5907,
      "baker": 5908,
      "orthodox": 5909,
      "depression": 5910,
      "formally": 5911,
      "worn": 5912,
      "naked": 5913,
      "claire": 5914,
      "muttered": 5915,
      "sentence": 5916,
      "11th": 5917,
      "emily": 5918,
      "document": 5919,
      "77": 5920,
      "criticism": 5921,
      "wished": 5922,
      "vessel": 5923,
      "spiritual": 5924,
      "bent": 5925,
      "virgin": 5926,
      "parker": 5927,
      "minimum": 5928,
      "murray": 5929,
      "lunch": 5930,
      "danny": 5931,
      "printed": 5932,
      "compilation": 5933,
      "keyboards": 5934,
      "false": 5935,
      "blow": 5936,
      "belonged": 5937,
      "68": 5938,
      "raising": 5939,
      "78": 5940,
      "cutting": 5941,
      "##board": 5942,
      "pittsburgh": 5943,
      "##up": 5944,
      "9th": 5945,
      "shadows": 5946,
      "81": 5947,
      "hated": 5948,
      "indigenous": 5949,
      "jon": 5950,
      "15th": 5951,
      "barry": 5952,
      "scholar": 5953,
      "ah": 5954,
      "##zer": 5955,
      "oliver": 5956,
      "##gy": 5957,
      "stick": 5958,
      "susan": 5959,
      "meetings": 5960,
      "attracted": 5961,
      "spell": 5962,
      "romantic": 5963,
      "##ver": 5964,
      "ye": 5965,
      "1895": 5966,
      "photo": 5967,
      "demanded": 5968,
      "customers": 5969,
      "##ac": 5970,
      "1896": 5971,
      "logan": 5972,
      "revival": 5973,
      "keys": 5974,
      "modified": 5975,
      "commanded": 5976,
      "jeans": 5977,
      "##ious": 5978,
      "upset": 5979,
      "raw": 5980,
      "phil": 5981,
      "detective": 5982,
      "hiding": 5983,
      "resident": 5984,
      "vincent": 5985,
      "##bly": 5986,
      "experiences": 5987,
      "diamond": 5988,
      "defeating": 5989,
      "coverage": 5990,
      "lucas": 5991,
      "external": 5992,
      "parks": 5993,
      "franchise": 5994,
      "helen": 5995,
      "bible": 5996,
      "successor": 5997,
      "percussion": 5998,
      "celebrated": 5999,
      "il": 6000,
      "lift": 6001,
      "profile": 6002,
      "clan": 6003,
      "romania": 6004,
      "##ied": 6005,
      "mills": 6006,
      "##su": 6007,
      "nobody": 6008,
      "achievement": 6009,
      "shrugged": 6010,
      "fault": 6011,
      "1897": 6012,
      "rhythm": 6013,
      "initiative": 6014,
      "breakfast": 6015,
      "carbon": 6016,
      "700": 6017,
      "69": 6018,
      "lasted": 6019,
      "violent": 6020,
      "74": 6021,
      "wound": 6022,
      "ken": 6023,
      "killer": 6024,
      "gradually": 6025,
      "filmed": 6026,
      "°c": 6027,
      "dollars": 6028,
      "processing": 6029,
      "94": 6030,
      "remove": 6031,
      "criticized": 6032,
      "guests": 6033,
      "sang": 6034,
      "chemistry": 6035,
      "##vin": 6036,
      "legislature": 6037,
      "disney": 6038,
      "##bridge": 6039,
      "uniform": 6040,
      "escaped": 6041,
      "integrated": 6042,
      "proposal": 6043,
      "purple": 6044,
      "denied": 6045,
      "liquid": 6046,
      "karl": 6047,
      "influential": 6048,
      "morris": 6049,
      "nights": 6050,
      "stones": 6051,
      "intense": 6052,
      "experimental": 6053,
      "twisted": 6054,
      "71": 6055,
      "84": 6056,
      "##ld": 6057,
      "pace": 6058,
      "nazi": 6059,
      "mitchell": 6060,
      "ny": 6061,
      "blind": 6062,
      "reporter": 6063,
      "newspapers": 6064,
      "14th": 6065,
      "centers": 6066,
      "burn": 6067,
      "basin": 6068,
      "forgotten": 6069,
      "surviving": 6070,
      "filed": 6071,
      "collections": 6072,
      "monastery": 6073,
      "losses": 6074,
      "manual": 6075,
      "couch": 6076,
      "description": 6077,
      "appropriate": 6078,
      "merely": 6079,
      "tag": 6080,
      "missions": 6081,
      "sebastian": 6082,
      "restoration": 6083,
      "replacing": 6084,
      "triple": 6085,
      "73": 6086,
      "elder": 6087,
      "julia": 6088,
      "warriors": 6089,
      "benjamin": 6090,
      "julian": 6091,
      "convinced": 6092,
      "stronger": 6093,
      "amazing": 6094,
      "declined": 6095,
      "versus": 6096,
      "merchant": 6097,
      "happens": 6098,
      "output": 6099,
      "finland": 6100,
      "bare": 6101,
      "barbara": 6102,
      "absence": 6103,
      "ignored": 6104,
      "dawn": 6105,
      "injuries": 6106,
      "##port": 6107,
      "producers": 6108,
      "##ram": 6109,
      "82": 6110,
      "luis": 6111,
      "##ities": 6112,
      "kw": 6113,
      "admit": 6114,
      "expensive": 6115,
      "electricity": 6116,
      "nba": 6117,
      "exception": 6118,
      "symbol": 6119,
      "##ving": 6120,
      "ladies": 6121,
      "shower": 6122,
      "sheriff": 6123,
      "characteristics": 6124,
      "##je": 6125,
      "aimed": 6126,
      "button": 6127,
      "ratio": 6128,
      "effectively": 6129,
      "summit": 6130,
      "angle": 6131,
      "jury": 6132,
      "bears": 6133,
      "foster": 6134,
      "vessels": 6135,
      "pants": 6136,
      "executed": 6137,
      "evans": 6138,
      "dozen": 6139,
      "advertising": 6140,
      "kicked": 6141,
      "patrol": 6142,
      "1889": 6143,
      "competitions": 6144,
      "lifetime": 6145,
      "principles": 6146,
      "athletics": 6147,
      "##logy": 6148,
      "birmingham": 6149,
      "sponsored": 6150,
      "89": 6151,
      "rob": 6152,
      "nomination": 6153,
      "1893": 6154,
      "acoustic": 6155,
      "##sm": 6156,
      "creature": 6157,
      "longest": 6158,
      "##tra": 6159,
      "credits": 6160,
      "harbor": 6161,
      "dust": 6162,
      "josh": 6163,
      "##so": 6164,
      "territories": 6165,
      "milk": 6166,
      "infrastructure": 6167,
      "completion": 6168,
      "thailand": 6169,
      "indians": 6170,
      "leon": 6171,
      "archbishop": 6172,
      "##sy": 6173,
      "assist": 6174,
      "pitch": 6175,
      "blake": 6176,
      "arrangement": 6177,
      "girlfriend": 6178,
      "serbian": 6179,
      "operational": 6180,
      "hence": 6181,
      "sad": 6182,
      "scent": 6183,
      "fur": 6184,
      "dj": 6185,
      "sessions": 6186,
      "hp": 6187,
      "refer": 6188,
      "rarely": 6189,
      "##ora": 6190,
      "exists": 6191,
      "1892": 6192,
      "##ten": 6193,
      "scientists": 6194,
      "dirty": 6195,
      "penalty": 6196,
      "burst": 6197,
      "portrait": 6198,
      "seed": 6199,
      "79": 6200,
      "pole": 6201,
      "limits": 6202,
      "rival": 6203,
      "1894": 6204,
      "stable": 6205,
      "alpha": 6206,
      "grave": 6207,
      "constitutional": 6208,
      "alcohol": 6209,
      "arrest": 6210,
      "flower": 6211,
      "mystery": 6212,
      "devil": 6213,
      "architectural": 6214,
      "relationships": 6215,
      "greatly": 6216,
      "habitat": 6217,
      "##istic": 6218,
      "larry": 6219,
      "progressive": 6220,
      "remote": 6221,
      "cotton": 6222,
      "##ics": 6223,
      "##ok": 6224,
      "preserved": 6225,
      "reaches": 6226,
      "##ming": 6227,
      "cited": 6228,
      "86": 6229,
      "vast": 6230,
      "scholarship": 6231,
      "decisions": 6232,
      "cbs": 6233,
      "joy": 6234,
      "teach": 6235,
      "1885": 6236,
      "editions": 6237,
      "knocked": 6238,
      "eve": 6239,
      "searching": 6240,
      "partly": 6241,
      "participation": 6242,
      "gap": 6243,
      "animated": 6244,
      "fate": 6245,
      "excellent": 6246,
      "##ett": 6247,
      "na": 6248,
      "87": 6249,
      "alternate": 6250,
      "saints": 6251,
      "youngest": 6252,
      "##ily": 6253,
      "climbed": 6254,
      "##ita": 6255,
      "##tors": 6256,
      "suggest": 6257,
      "##ct": 6258,
      "discussion": 6259,
      "staying": 6260,
      "choir": 6261,
      "lakes": 6262,
      "jacket": 6263,
      "revenue": 6264,
      "nevertheless": 6265,
      "peaked": 6266,
      "instrument": 6267,
      "wondering": 6268,
      "annually": 6269,
      "managing": 6270,
      "neil": 6271,
      "1891": 6272,
      "signing": 6273,
      "terry": 6274,
      "##ice": 6275,
      "apply": 6276,
      "clinical": 6277,
      "brooklyn": 6278,
      "aim": 6279,
      "catherine": 6280,
      "fuck": 6281,
      "farmers": 6282,
      "figured": 6283,
      "ninth": 6284,
      "pride": 6285,
      "hugh": 6286,
      "evolution": 6287,
      "ordinary": 6288,
      "involvement": 6289,
      "comfortable": 6290,
      "shouted": 6291,
      "tech": 6292,
      "encouraged": 6293,
      "taiwan": 6294,
      "representation": 6295,
      "sharing": 6296,
      "##lia": 6297,
      "##em": 6298,
      "panic": 6299,
      "exact": 6300,
      "cargo": 6301,
      "competing": 6302,
      "fat": 6303,
      "cried": 6304,
      "83": 6305,
      "1920s": 6306,
      "occasions": 6307,
      "pa": 6308,
      "cabin": 6309,
      "borders": 6310,
      "utah": 6311,
      "marcus": 6312,
      "##isation": 6313,
      "badly": 6314,
      "muscles": 6315,
      "##ance": 6316,
      "victorian": 6317,
      "transition": 6318,
      "warner": 6319,
      "bet": 6320,
      "permission": 6321,
      "##rin": 6322,
      "slave": 6323,
      "terrible": 6324,
      "similarly": 6325,
      "shares": 6326,
      "seth": 6327,
      "uefa": 6328,
      "possession": 6329,
      "medals": 6330,
      "benefits": 6331,
      "colleges": 6332,
      "lowered": 6333,
      "perfectly": 6334,
      "mall": 6335,
      "transit": 6336,
      "##ye": 6337,
      "##kar": 6338,
      "publisher": 6339,
      "##ened": 6340,
      "harrison": 6341,
      "deaths": 6342,
      "elevation": 6343,
      "##ae": 6344,
      "asleep": 6345,
      "machines": 6346,
      "sigh": 6347,
      "ash": 6348,
      "hardly": 6349,
      "argument": 6350,
      "occasion": 6351,
      "parent": 6352,
      "leo": 6353,
      "decline": 6354,
      "1888": 6355,
      "contribution": 6356,
      "##ua": 6357,
      "concentration": 6358,
      "1000": 6359,
      "opportunities": 6360,
      "hispanic": 6361,
      "guardian": 6362,
      "extent": 6363,
      "emotions": 6364,
      "hips": 6365,
      "mason": 6366,
      "volumes": 6367,
      "bloody": 6368,
      "controversy": 6369,
      "diameter": 6370,
      "steady": 6371,
      "mistake": 6372,
      "phoenix": 6373,
      "identify": 6374,
      "violin": 6375,
      "##sk": 6376,
      "departure": 6377,
      "richmond": 6378,
      "spin": 6379,
      "funeral": 6380,
      "enemies": 6381,
      "1864": 6382,
      "gear": 6383,
      "literally": 6384,
      "connor": 6385,
      "random": 6386,
      "sergeant": 6387,
      "grab": 6388,
      "confusion": 6389,
      "1865": 6390,
      "transmission": 6391,
      "informed": 6392,
      "op": 6393,
      "leaning": 6394,
      "sacred": 6395,
      "suspended": 6396,
      "thinks": 6397,
      "gates": 6398,
      "portland": 6399,
      "luck": 6400,
      "agencies": 6401,
      "yours": 6402,
      "hull": 6403,
      "expert": 6404,
      "muscle": 6405,
      "layer": 6406,
      "practical": 6407,
      "sculpture": 6408,
      "jerusalem": 6409,
      "latest": 6410,
      "lloyd": 6411,
      "statistics": 6412,
      "deeper": 6413,
      "recommended": 6414,
      "warrior": 6415,
      "arkansas": 6416,
      "mess": 6417,
      "supports": 6418,
      "greg": 6419,
      "eagle": 6420,
      "1880": 6421,
      "recovered": 6422,
      "rated": 6423,
      "concerts": 6424,
      "rushed": 6425,
      "##ano": 6426,
      "stops": 6427,
      "eggs": 6428,
      "files": 6429,
      "premiere": 6430,
      "keith": 6431,
      "##vo": 6432,
      "delhi": 6433,
      "turner": 6434,
      "pit": 6435,
      "affair": 6436,
      "belief": 6437,
      "paint": 6438,
      "##zing": 6439,
      "mate": 6440,
      "##ach": 6441,
      "##ev": 6442,
      "victim": 6443,
      "##ology": 6444,
      "withdrew": 6445,
      "bonus": 6446,
      "styles": 6447,
      "fled": 6448,
      "##ud": 6449,
      "glasgow": 6450,
      "technologies": 6451,
      "funded": 6452,
      "nbc": 6453,
      "adaptation": 6454,
      "##ata": 6455,
      "portrayed": 6456,
      "cooperation": 6457,
      "supporters": 6458,
      "judges": 6459,
      "bernard": 6460,
      "justin": 6461,
      "hallway": 6462,
      "ralph": 6463,
      "##ick": 6464,
      "graduating": 6465,
      "controversial": 6466,
      "distant": 6467,
      "continental": 6468,
      "spider": 6469,
      "bite": 6470,
      "##ho": 6471,
      "recognize": 6472,
      "intention": 6473,
      "mixing": 6474,
      "##ese": 6475,
      "egyptian": 6476,
      "bow": 6477,
      "tourism": 6478,
      "suppose": 6479,
      "claiming": 6480,
      "tiger": 6481,
      "dominated": 6482,
      "participants": 6483,
      "vi": 6484,
      "##ru": 6485,
      "nurse": 6486,
      "partially": 6487,
      "tape": 6488,
      "##rum": 6489,
      "psychology": 6490,
      "##rn": 6491,
      "essential": 6492,
      "touring": 6493,
      "duo": 6494,
      "voting": 6495,
      "civilian": 6496,
      "emotional": 6497,
      "channels": 6498,
      "##king": 6499,
      "apparent": 6500,
      "hebrew": 6501,
      "1887": 6502,
      "tommy": 6503,
      "carrier": 6504,
      "intersection": 6505,
      "beast": 6506,
      "hudson": 6507,
      "##gar": 6508,
      "##zo": 6509,
      "lab": 6510,
      "nova": 6511,
      "bench": 6512,
      "discuss": 6513,
      "costa": 6514,
      "##ered": 6515,
      "detailed": 6516,
      "behalf": 6517,
      "drivers": 6518,
      "unfortunately": 6519,
      "obtain": 6520,
      "##lis": 6521,
      "rocky": 6522,
      "##dae": 6523,
      "siege": 6524,
      "friendship": 6525,
      "honey": 6526,
      "##rian": 6527,
      "1861": 6528,
      "amy": 6529,
      "hang": 6530,
      "posted": 6531,
      "governments": 6532,
      "collins": 6533,
      "respond": 6534,
      "wildlife": 6535,
      "preferred": 6536,
      "operator": 6537,
      "##po": 6538,
      "laura": 6539,
      "pregnant": 6540,
      "videos": 6541,
      "dennis": 6542,
      "suspected": 6543,
      "boots": 6544,
      "instantly": 6545,
      "weird": 6546,
      "automatic": 6547,
      "businessman": 6548,
      "alleged": 6549,
      "placing": 6550,
      "throwing": 6551,
      "ph": 6552,
      "mood": 6553,
      "1862": 6554,
      "perry": 6555,
      "venue": 6556,
      "jet": 6557,
      "remainder": 6558,
      "##lli": 6559,
      "##ci": 6560,
      "passion": 6561,
      "biological": 6562,
      "boyfriend": 6563,
      "1863": 6564,
      "dirt": 6565,
      "buffalo": 6566,
      "ron": 6567,
      "segment": 6568,
      "fa": 6569,
      "abuse": 6570,
      "##era": 6571,
      "genre": 6572,
      "thrown": 6573,
      "stroke": 6574,
      "colored": 6575,
      "stress": 6576,
      "exercise": 6577,
      "displayed": 6578,
      "##gen": 6579,
      "struggled": 6580,
      "##tti": 6581,
      "abroad": 6582,
      "dramatic": 6583,
      "wonderful": 6584,
      "thereafter": 6585,
      "madrid": 6586,
      "component": 6587,
      "widespread": 6588,
      "##sed": 6589,
      "tale": 6590,
      "citizen": 6591,
      "todd": 6592,
      "monday": 6593,
      "1886": 6594,
      "vancouver": 6595,
      "overseas": 6596,
      "forcing": 6597,
      "crying": 6598,
      "descent": 6599,
      "##ris": 6600,
      "discussed": 6601,
      "substantial": 6602,
      "ranks": 6603,
      "regime": 6604,
      "1870": 6605,
      "provinces": 6606,
      "switch": 6607,
      "drum": 6608,
      "zane": 6609,
      "ted": 6610,
      "tribes": 6611,
      "proof": 6612,
      "lp": 6613,
      "cream": 6614,
      "researchers": 6615,
      "volunteer": 6616,
      "manor": 6617,
      "silk": 6618,
      "milan": 6619,
      "donated": 6620,
      "allies": 6621,
      "venture": 6622,
      "principle": 6623,
      "delivery": 6624,
      "enterprise": 6625,
      "##ves": 6626,
      "##ans": 6627,
      "bars": 6628,
      "traditionally": 6629,
      "witch": 6630,
      "reminded": 6631,
      "copper": 6632,
      "##uk": 6633,
      "pete": 6634,
      "inter": 6635,
      "links": 6636,
      "colin": 6637,
      "grinned": 6638,
      "elsewhere": 6639,
      "competitive": 6640,
      "frequent": 6641,
      "##oy": 6642,
      "scream": 6643,
      "##hu": 6644,
      "tension": 6645,
      "texts": 6646,
      "submarine": 6647,
      "finnish": 6648,
      "defending": 6649,
      "defend": 6650,
      "pat": 6651,
      "detail": 6652,
      "1884": 6653,
      "affiliated": 6654,
      "stuart": 6655,
      "themes": 6656,
      "villa": 6657,
      "periods": 6658,
      "tool": 6659,
      "belgian": 6660,
      "ruling": 6661,
      "crimes": 6662,
      "answers": 6663,
      "folded": 6664,
      "licensed": 6665,
      "resort": 6666,
      "demolished": 6667,
      "hans": 6668,
      "lucy": 6669,
      "1881": 6670,
      "lion": 6671,
      "traded": 6672,
      "photographs": 6673,
      "writes": 6674,
      "craig": 6675,
      "##fa": 6676,
      "trials": 6677,
      "generated": 6678,
      "beth": 6679,
      "noble": 6680,
      "debt": 6681,
      "percentage": 6682,
      "yorkshire": 6683,
      "erected": 6684,
      "ss": 6685,
      "viewed": 6686,
      "grades": 6687,
      "confidence": 6688,
      "ceased": 6689,
      "islam": 6690,
      "telephone": 6691,
      "retail": 6692,
      "##ible": 6693,
      "chile": 6694,
      "m²": 6695,
      "roberts": 6696,
      "sixteen": 6697,
      "##ich": 6698,
      "commented": 6699,
      "hampshire": 6700,
      "innocent": 6701,
      "dual": 6702,
      "pounds": 6703,
      "checked": 6704,
      "regulations": 6705,
      "afghanistan": 6706,
      "sung": 6707,
      "rico": 6708,
      "liberty": 6709,
      "assets": 6710,
      "bigger": 6711,
      "options": 6712,
      "angels": 6713,
      "relegated": 6714,
      "tribute": 6715,
      "wells": 6716,
      "attending": 6717,
      "leaf": 6718,
      "##yan": 6719,
      "butler": 6720,
      "romanian": 6721,
      "forum": 6722,
      "monthly": 6723,
      "lisa": 6724,
      "patterns": 6725,
      "gmina": 6726,
      "##tory": 6727,
      "madison": 6728,
      "hurricane": 6729,
      "rev": 6730,
      "##ians": 6731,
      "bristol": 6732,
      "##ula": 6733,
      "elite": 6734,
      "valuable": 6735,
      "disaster": 6736,
      "democracy": 6737,
      "awareness": 6738,
      "germans": 6739,
      "freyja": 6740,
      "##ins": 6741,
      "loop": 6742,
      "absolutely": 6743,
      "paying": 6744,
      "populations": 6745,
      "maine": 6746,
      "sole": 6747,
      "prayer": 6748,
      "spencer": 6749,
      "releases": 6750,
      "doorway": 6751,
      "bull": 6752,
      "##ani": 6753,
      "lover": 6754,
      "midnight": 6755,
      "conclusion": 6756,
      "##sson": 6757,
      "thirteen": 6758,
      "lily": 6759,
      "mediterranean": 6760,
      "##lt": 6761,
      "nhl": 6762,
      "proud": 6763,
      "sample": 6764,
      "##hill": 6765,
      "drummer": 6766,
      "guinea": 6767,
      "##ova": 6768,
      "murphy": 6769,
      "climb": 6770,
      "##ston": 6771,
      "instant": 6772,
      "attributed": 6773,
      "horn": 6774,
      "ain": 6775,
      "railways": 6776,
      "steven": 6777,
      "##ao": 6778,
      "autumn": 6779,
      "ferry": 6780,
      "opponent": 6781,
      "root": 6782,
      "traveling": 6783,
      "secured": 6784,
      "corridor": 6785,
      "stretched": 6786,
      "tales": 6787,
      "sheet": 6788,
      "trinity": 6789,
      "cattle": 6790,
      "helps": 6791,
      "indicates": 6792,
      "manhattan": 6793,
      "murdered": 6794,
      "fitted": 6795,
      "1882": 6796,
      "gentle": 6797,
      "grandmother": 6798,
      "mines": 6799,
      "shocked": 6800,
      "vegas": 6801,
      "produces": 6802,
      "##light": 6803,
      "caribbean": 6804,
      "##ou": 6805,
      "belong": 6806,
      "continuous": 6807,
      "desperate": 6808,
      "drunk": 6809,
      "historically": 6810,
      "trio": 6811,
      "waved": 6812,
      "raf": 6813,
      "dealing": 6814,
      "nathan": 6815,
      "bat": 6816,
      "murmured": 6817,
      "interrupted": 6818,
      "residing": 6819,
      "scientist": 6820,
      "pioneer": 6821,
      "harold": 6822,
      "aaron": 6823,
      "##net": 6824,
      "delta": 6825,
      "attempting": 6826,
      "minority": 6827,
      "mini": 6828,
      "believes": 6829,
      "chorus": 6830,
      "tend": 6831,
      "lots": 6832,
      "eyed": 6833,
      "indoor": 6834,
      "load": 6835,
      "shots": 6836,
      "updated": 6837,
      "jail": 6838,
      "##llo": 6839,
      "concerning": 6840,
      "connecting": 6841,
      "wealth": 6842,
      "##ved": 6843,
      "slaves": 6844,
      "arrive": 6845,
      "rangers": 6846,
      "sufficient": 6847,
      "rebuilt": 6848,
      "##wick": 6849,
      "cardinal": 6850,
      "flood": 6851,
      "muhammad": 6852,
      "whenever": 6853,
      "relation": 6854,
      "runners": 6855,
      "moral": 6856,
      "repair": 6857,
      "viewers": 6858,
      "arriving": 6859,
      "revenge": 6860,
      "punk": 6861,
      "assisted": 6862,
      "bath": 6863,
      "fairly": 6864,
      "breathe": 6865,
      "lists": 6866,
      "innings": 6867,
      "illustrated": 6868,
      "whisper": 6869,
      "nearest": 6870,
      "voters": 6871,
      "clinton": 6872,
      "ties": 6873,
      "ultimate": 6874,
      "screamed": 6875,
      "beijing": 6876,
      "lions": 6877,
      "andre": 6878,
      "fictional": 6879,
      "gathering": 6880,
      "comfort": 6881,
      "radar": 6882,
      "suitable": 6883,
      "dismissed": 6884,
      "hms": 6885,
      "ban": 6886,
      "pine": 6887,
      "wrist": 6888,
      "atmosphere": 6889,
      "voivodeship": 6890,
      "bid": 6891,
      "timber": 6892,
      "##ned": 6893,
      "##nan": 6894,
      "giants": 6895,
      "##ane": 6896,
      "cameron": 6897,
      "recovery": 6898,
      "uss": 6899,
      "identical": 6900,
      "categories": 6901,
      "switched": 6902,
      "serbia": 6903,
      "laughter": 6904,
      "noah": 6905,
      "ensemble": 6906,
      "therapy": 6907,
      "peoples": 6908,
      "touching": 6909,
      "##off": 6910,
      "locally": 6911,
      "pearl": 6912,
      "platforms": 6913,
      "everywhere": 6914,
      "ballet": 6915,
      "tables": 6916,
      "lanka": 6917,
      "herbert": 6918,
      "outdoor": 6919,
      "toured": 6920,
      "derek": 6921,
      "1883": 6922,
      "spaces": 6923,
      "contested": 6924,
      "swept": 6925,
      "1878": 6926,
      "exclusive": 6927,
      "slight": 6928,
      "connections": 6929,
      "##dra": 6930,
      "winds": 6931,
      "prisoner": 6932,
      "collective": 6933,
      "bangladesh": 6934,
      "tube": 6935,
      "publicly": 6936,
      "wealthy": 6937,
      "thai": 6938,
      "##ys": 6939,
      "isolated": 6940,
      "select": 6941,
      "##ric": 6942,
      "insisted": 6943,
      "pen": 6944,
      "fortune": 6945,
      "ticket": 6946,
      "spotted": 6947,
      "reportedly": 6948,
      "animation": 6949,
      "enforcement": 6950,
      "tanks": 6951,
      "110": 6952,
      "decides": 6953,
      "wider": 6954,
      "lowest": 6955,
      "owen": 6956,
      "##time": 6957,
      "nod": 6958,
      "hitting": 6959,
      "##hn": 6960,
      "gregory": 6961,
      "furthermore": 6962,
      "magazines": 6963,
      "fighters": 6964,
      "solutions": 6965,
      "##ery": 6966,
      "pointing": 6967,
      "requested": 6968,
      "peru": 6969,
      "reed": 6970,
      "chancellor": 6971,
      "knights": 6972,
      "mask": 6973,
      "worker": 6974,
      "eldest": 6975,
      "flames": 6976,
      "reduction": 6977,
      "1860": 6978,
      "volunteers": 6979,
      "##tis": 6980,
      "reporting": 6981,
      "##hl": 6982,
      "wire": 6983,
      "advisory": 6984,
      "endemic": 6985,
      "origins": 6986,
      "settlers": 6987,
      "pursue": 6988,
      "knock": 6989,
      "consumer": 6990,
      "1876": 6991,
      "eu": 6992,
      "compound": 6993,
      "creatures": 6994,
      "mansion": 6995,
      "sentenced": 6996,
      "ivan": 6997,
      "deployed": 6998,
      "guitars": 6999,
      "frowned": 7000,
      "involves": 7001,
      "mechanism": 7002,
      "kilometers": 7003,
      "perspective": 7004,
      "shops": 7005,
      "maps": 7006,
      "terminus": 7007,
      "duncan": 7008,
      "alien": 7009,
      "fist": 7010,
      "bridges": 7011,
      "##pers": 7012,
      "heroes": 7013,
      "fed": 7014,
      "derby": 7015,
      "swallowed": 7016,
      "##ros": 7017,
      "patent": 7018,
      "sara": 7019,
      "illness": 7020,
      "characterized": 7021,
      "adventures": 7022,
      "slide": 7023,
      "hawaii": 7024,
      "jurisdiction": 7025,
      "##op": 7026,
      "organised": 7027,
      "##side": 7028,
      "adelaide": 7029,
      "walks": 7030,
      "biology": 7031,
      "se": 7032,
      "##ties": 7033,
      "rogers": 7034,
      "swing": 7035,
      "tightly": 7036,
      "boundaries": 7037,
      "##rie": 7038,
      "prepare": 7039,
      "implementation": 7040,
      "stolen": 7041,
      "##sha": 7042,
      "certified": 7043,
      "colombia": 7044,
      "edwards": 7045,
      "garage": 7046,
      "##mm": 7047,
      "recalled": 7048,
      "##ball": 7049,
      "rage": 7050,
      "harm": 7051,
      "nigeria": 7052,
      "breast": 7053,
      "##ren": 7054,
      "furniture": 7055,
      "pupils": 7056,
      "settle": 7057,
      "##lus": 7058,
      "cuba": 7059,
      "balls": 7060,
      "client": 7061,
      "alaska": 7062,
      "21st": 7063,
      "linear": 7064,
      "thrust": 7065,
      "celebration": 7066,
      "latino": 7067,
      "genetic": 7068,
      "terror": 7069,
      "##cia": 7070,
      "##ening": 7071,
      "lightning": 7072,
      "fee": 7073,
      "witness": 7074,
      "lodge": 7075,
      "establishing": 7076,
      "skull": 7077,
      "##ique": 7078,
      "earning": 7079,
      "hood": 7080,
      "##ei": 7081,
      "rebellion": 7082,
      "wang": 7083,
      "sporting": 7084,
      "warned": 7085,
      "missile": 7086,
      "devoted": 7087,
      "activist": 7088,
      "porch": 7089,
      "worship": 7090,
      "fourteen": 7091,
      "package": 7092,
      "1871": 7093,
      "decorated": 7094,
      "##shire": 7095,
      "housed": 7096,
      "##ock": 7097,
      "chess": 7098,
      "sailed": 7099,
      "doctors": 7100,
      "oscar": 7101,
      "joan": 7102,
      "treat": 7103,
      "garcia": 7104,
      "harbour": 7105,
      "jeremy": 7106,
      "##ire": 7107,
      "traditions": 7108,
      "dominant": 7109,
      "jacques": 7110,
      "##gon": 7111,
      "##wan": 7112,
      "relocated": 7113,
      "1879": 7114,
      "amendment": 7115,
      "sized": 7116,
      "companion": 7117,
      "simultaneously": 7118,
      "volleyball": 7119,
      "spun": 7120,
      "acre": 7121,
      "increases": 7122,
      "stopping": 7123,
      "loves": 7124,
      "belongs": 7125,
      "affect": 7126,
      "drafted": 7127,
      "tossed": 7128,
      "scout": 7129,
      "battles": 7130,
      "1875": 7131,
      "filming": 7132,
      "shoved": 7133,
      "munich": 7134,
      "tenure": 7135,
      "vertical": 7136,
      "romance": 7137,
      "pc": 7138,
      "##cher": 7139,
      "argue": 7140,
      "##ical": 7141,
      "craft": 7142,
      "ranging": 7143,
      "www": 7144,
      "opens": 7145,
      "honest": 7146,
      "tyler": 7147,
      "yesterday": 7148,
      "virtual": 7149,
      "##let": 7150,
      "muslims": 7151,
      "reveal": 7152,
      "snake": 7153,
      "immigrants": 7154,
      "radical": 7155,
      "screaming": 7156,
      "speakers": 7157,
      "firing": 7158,
      "saving": 7159,
      "belonging": 7160,
      "ease": 7161,
      "lighting": 7162,
      "prefecture": 7163,
      "blame": 7164,
      "farmer": 7165,
      "hungry": 7166,
      "grows": 7167,
      "rubbed": 7168,
      "beam": 7169,
      "sur": 7170,
      "subsidiary": 7171,
      "##cha": 7172,
      "armenian": 7173,
      "sao": 7174,
      "dropping": 7175,
      "conventional": 7176,
      "##fer": 7177,
      "microsoft": 7178,
      "reply": 7179,
      "qualify": 7180,
      "spots": 7181,
      "1867": 7182,
      "sweat": 7183,
      "festivals": 7184,
      "##ken": 7185,
      "immigration": 7186,
      "physician": 7187,
      "discover": 7188,
      "exposure": 7189,
      "sandy": 7190,
      "explanation": 7191,
      "isaac": 7192,
      "implemented": 7193,
      "##fish": 7194,
      "hart": 7195,
      "initiated": 7196,
      "connect": 7197,
      "stakes": 7198,
      "presents": 7199,
      "heights": 7200,
      "householder": 7201,
      "pleased": 7202,
      "tourist": 7203,
      "regardless": 7204,
      "slip": 7205,
      "closest": 7206,
      "##ction": 7207,
      "surely": 7208,
      "sultan": 7209,
      "brings": 7210,
      "riley": 7211,
      "preparation": 7212,
      "aboard": 7213,
      "slammed": 7214,
      "baptist": 7215,
      "experiment": 7216,
      "ongoing": 7217,
      "interstate": 7218,
      "organic": 7219,
      "playoffs": 7220,
      "##ika": 7221,
      "1877": 7222,
      "130": 7223,
      "##tar": 7224,
      "hindu": 7225,
      "error": 7226,
      "tours": 7227,
      "tier": 7228,
      "plenty": 7229,
      "arrangements": 7230,
      "talks": 7231,
      "trapped": 7232,
      "excited": 7233,
      "sank": 7234,
      "ho": 7235,
      "athens": 7236,
      "1872": 7237,
      "denver": 7238,
      "welfare": 7239,
      "suburb": 7240,
      "athletes": 7241,
      "trick": 7242,
      "diverse": 7243,
      "belly": 7244,
      "exclusively": 7245,
      "yelled": 7246,
      "1868": 7247,
      "##med": 7248,
      "conversion": 7249,
      "##ette": 7250,
      "1874": 7251,
      "internationally": 7252,
      "computers": 7253,
      "conductor": 7254,
      "abilities": 7255,
      "sensitive": 7256,
      "hello": 7257,
      "dispute": 7258,
      "measured": 7259,
      "globe": 7260,
      "rocket": 7261,
      "prices": 7262,
      "amsterdam": 7263,
      "flights": 7264,
      "tigers": 7265,
      "inn": 7266,
      "municipalities": 7267,
      "emotion": 7268,
      "references": 7269,
      "3d": 7270,
      "##mus": 7271,
      "explains": 7272,
      "airlines": 7273,
      "manufactured": 7274,
      "pm": 7275,
      "archaeological": 7276,
      "1873": 7277,
      "interpretation": 7278,
      "devon": 7279,
      "comment": 7280,
      "##ites": 7281,
      "settlements": 7282,
      "kissing": 7283,
      "absolute": 7284,
      "improvement": 7285,
      "suite": 7286,
      "impressed": 7287,
      "barcelona": 7288,
      "sullivan": 7289,
      "jefferson": 7290,
      "towers": 7291,
      "jesse": 7292,
      "julie": 7293,
      "##tin": 7294,
      "##lu": 7295,
      "grandson": 7296,
      "hi": 7297,
      "gauge": 7298,
      "regard": 7299,
      "rings": 7300,
      "interviews": 7301,
      "trace": 7302,
      "raymond": 7303,
      "thumb": 7304,
      "departments": 7305,
      "burns": 7306,
      "serial": 7307,
      "bulgarian": 7308,
      "scores": 7309,
      "demonstrated": 7310,
      "##ix": 7311,
      "1866": 7312,
      "kyle": 7313,
      "alberta": 7314,
      "underneath": 7315,
      "romanized": 7316,
      "##ward": 7317,
      "relieved": 7318,
      "acquisition": 7319,
      "phrase": 7320,
      "cliff": 7321,
      "reveals": 7322,
      "han": 7323,
      "cuts": 7324,
      "merger": 7325,
      "custom": 7326,
      "##dar": 7327,
      "nee": 7328,
      "gilbert": 7329,
      "graduation": 7330,
      "##nts": 7331,
      "assessment": 7332,
      "cafe": 7333,
      "difficulty": 7334,
      "demands": 7335,
      "swung": 7336,
      "democrat": 7337,
      "jennifer": 7338,
      "commons": 7339,
      "1940s": 7340,
      "grove": 7341,
      "##yo": 7342,
      "completing": 7343,
      "focuses": 7344,
      "sum": 7345,
      "substitute": 7346,
      "bearing": 7347,
      "stretch": 7348,
      "reception": 7349,
      "##py": 7350,
      "reflected": 7351,
      "essentially": 7352,
      "destination": 7353,
      "pairs": 7354,
      "##ched": 7355,
      "survival": 7356,
      "resource": 7357,
      "##bach": 7358,
      "promoting": 7359,
      "doubles": 7360,
      "messages": 7361,
      "tear": 7362,
      "##down": 7363,
      "##fully": 7364,
      "parade": 7365,
      "florence": 7366,
      "harvey": 7367,
      "incumbent": 7368,
      "partial": 7369,
      "framework": 7370,
      "900": 7371,
      "pedro": 7372,
      "frozen": 7373,
      "procedure": 7374,
      "olivia": 7375,
      "controls": 7376,
      "##mic": 7377,
      "shelter": 7378,
      "personally": 7379,
      "temperatures": 7380,
      "##od": 7381,
      "brisbane": 7382,
      "tested": 7383,
      "sits": 7384,
      "marble": 7385,
      "comprehensive": 7386,
      "oxygen": 7387,
      "leonard": 7388,
      "##kov": 7389,
      "inaugural": 7390,
      "iranian": 7391,
      "referring": 7392,
      "quarters": 7393,
      "attitude": 7394,
      "##ivity": 7395,
      "mainstream": 7396,
      "lined": 7397,
      "mars": 7398,
      "dakota": 7399,
      "norfolk": 7400,
      "unsuccessful": 7401,
      "##°": 7402,
      "explosion": 7403,
      "helicopter": 7404,
      "congressional": 7405,
      "##sing": 7406,
      "inspector": 7407,
      "bitch": 7408,
      "seal": 7409,
      "departed": 7410,
      "divine": 7411,
      "##ters": 7412,
      "coaching": 7413,
      "examination": 7414,
      "punishment": 7415,
      "manufacturer": 7416,
      "sink": 7417,
      "columns": 7418,
      "unincorporated": 7419,
      "signals": 7420,
      "nevada": 7421,
      "squeezed": 7422,
      "dylan": 7423,
      "dining": 7424,
      "photos": 7425,
      "martial": 7426,
      "manuel": 7427,
      "eighteen": 7428,
      "elevator": 7429,
      "brushed": 7430,
      "plates": 7431,
      "ministers": 7432,
      "ivy": 7433,
      "congregation": 7434,
      "##len": 7435,
      "slept": 7436,
      "specialized": 7437,
      "taxes": 7438,
      "curve": 7439,
      "restricted": 7440,
      "negotiations": 7441,
      "likes": 7442,
      "statistical": 7443,
      "arnold": 7444,
      "inspiration": 7445,
      "execution": 7446,
      "bold": 7447,
      "intermediate": 7448,
      "significance": 7449,
      "margin": 7450,
      "ruler": 7451,
      "wheels": 7452,
      "gothic": 7453,
      "intellectual": 7454,
      "dependent": 7455,
      "listened": 7456,
      "eligible": 7457,
      "buses": 7458,
      "widow": 7459,
      "syria": 7460,
      "earn": 7461,
      "cincinnati": 7462,
      "collapsed": 7463,
      "recipient": 7464,
      "secrets": 7465,
      "accessible": 7466,
      "philippine": 7467,
      "maritime": 7468,
      "goddess": 7469,
      "clerk": 7470,
      "surrender": 7471,
      "breaks": 7472,
      "playoff": 7473,
      "database": 7474,
      "##ified": 7475,
      "##lon": 7476,
      "ideal": 7477,
      "beetle": 7478,
      "aspect": 7479,
      "soap": 7480,
      "regulation": 7481,
      "strings": 7482,
      "expand": 7483,
      "anglo": 7484,
      "shorter": 7485,
      "crosses": 7486,
      "retreat": 7487,
      "tough": 7488,
      "coins": 7489,
      "wallace": 7490,
      "directions": 7491,
      "pressing": 7492,
      "##oon": 7493,
      "shipping": 7494,
      "locomotives": 7495,
      "comparison": 7496,
      "topics": 7497,
      "nephew": 7498,
      "##mes": 7499,
      "distinction": 7500,
      "honors": 7501,
      "travelled": 7502,
      "sierra": 7503,
      "ibn": 7504,
      "##over": 7505,
      "fortress": 7506,
      "sa": 7507,
      "recognised": 7508,
      "carved": 7509,
      "1869": 7510,
      "clients": 7511,
      "##dan": 7512,
      "intent": 7513,
      "##mar": 7514,
      "coaches": 7515,
      "describing": 7516,
      "bread": 7517,
      "##ington": 7518,
      "beaten": 7519,
      "northwestern": 7520,
      "##ona": 7521,
      "merit": 7522,
      "youtube": 7523,
      "collapse": 7524,
      "challenges": 7525,
      "em": 7526,
      "historians": 7527,
      "objective": 7528,
      "submitted": 7529,
      "virus": 7530,
      "attacking": 7531,
      "drake": 7532,
      "assume": 7533,
      "##ere": 7534,
      "diseases": 7535,
      "marc": 7536,
      "stem": 7537,
      "leeds": 7538,
      "##cus": 7539,
      "##ab": 7540,
      "farming": 7541,
      "glasses": 7542,
      "##lock": 7543,
      "visits": 7544,
      "nowhere": 7545,
      "fellowship": 7546,
      "relevant": 7547,
      "carries": 7548,
      "restaurants": 7549,
      "experiments": 7550,
      "101": 7551,
      "constantly": 7552,
      "bases": 7553,
      "targets": 7554,
      "shah": 7555,
      "tenth": 7556,
      "opponents": 7557,
      "verse": 7558,
      "territorial": 7559,
      "##ira": 7560,
      "writings": 7561,
      "corruption": 7562,
      "##hs": 7563,
      "instruction": 7564,
      "inherited": 7565,
      "reverse": 7566,
      "emphasis": 7567,
      "##vic": 7568,
      "employee": 7569,
      "arch": 7570,
      "keeps": 7571,
      "rabbi": 7572,
      "watson": 7573,
      "payment": 7574,
      "uh": 7575,
      "##ala": 7576,
      "nancy": 7577,
      "##tre": 7578,
      "venice": 7579,
      "fastest": 7580,
      "sexy": 7581,
      "banned": 7582,
      "adrian": 7583,
      "properly": 7584,
      "ruth": 7585,
      "touchdown": 7586,
      "dollar": 7587,
      "boards": 7588,
      "metre": 7589,
      "circles": 7590,
      "edges": 7591,
      "favour": 7592,
      "comments": 7593,
      "ok": 7594,
      "travels": 7595,
      "liberation": 7596,
      "scattered": 7597,
      "firmly": 7598,
      "##ular": 7599,
      "holland": 7600,
      "permitted": 7601,
      "diesel": 7602,
      "kenya": 7603,
      "den": 7604,
      "originated": 7605,
      "##ral": 7606,
      "demons": 7607,
      "resumed": 7608,
      "dragged": 7609,
      "rider": 7610,
      "##rus": 7611,
      "servant": 7612,
      "blinked": 7613,
      "extend": 7614,
      "torn": 7615,
      "##ias": 7616,
      "##sey": 7617,
      "input": 7618,
      "meal": 7619,
      "everybody": 7620,
      "cylinder": 7621,
      "kinds": 7622,
      "camps": 7623,
      "##fe": 7624,
      "bullet": 7625,
      "logic": 7626,
      "##wn": 7627,
      "croatian": 7628,
      "evolved": 7629,
      "healthy": 7630,
      "fool": 7631,
      "chocolate": 7632,
      "wise": 7633,
      "preserve": 7634,
      "pradesh": 7635,
      "##ess": 7636,
      "respective": 7637,
      "1850": 7638,
      "##ew": 7639,
      "chicken": 7640,
      "artificial": 7641,
      "gross": 7642,
      "corresponding": 7643,
      "convicted": 7644,
      "cage": 7645,
      "caroline": 7646,
      "dialogue": 7647,
      "##dor": 7648,
      "narrative": 7649,
      "stranger": 7650,
      "mario": 7651,
      "br": 7652,
      "christianity": 7653,
      "failing": 7654,
      "trent": 7655,
      "commanding": 7656,
      "buddhist": 7657,
      "1848": 7658,
      "maurice": 7659,
      "focusing": 7660,
      "yale": 7661,
      "bike": 7662,
      "altitude": 7663,
      "##ering": 7664,
      "mouse": 7665,
      "revised": 7666,
      "##sley": 7667,
      "veteran": 7668,
      "##ig": 7669,
      "pulls": 7670,
      "theology": 7671,
      "crashed": 7672,
      "campaigns": 7673,
      "legion": 7674,
      "##ability": 7675,
      "drag": 7676,
      "excellence": 7677,
      "customer": 7678,
      "cancelled": 7679,
      "intensity": 7680,
      "excuse": 7681,
      "##lar": 7682,
      "liga": 7683,
      "participating": 7684,
      "contributing": 7685,
      "printing": 7686,
      "##burn": 7687,
      "variable": 7688,
      "##rk": 7689,
      "curious": 7690,
      "bin": 7691,
      "legacy": 7692,
      "renaissance": 7693,
      "##my": 7694,
      "symptoms": 7695,
      "binding": 7696,
      "vocalist": 7697,
      "dancer": 7698,
      "##nie": 7699,
      "grammar": 7700,
      "gospel": 7701,
      "democrats": 7702,
      "ya": 7703,
      "enters": 7704,
      "sc": 7705,
      "diplomatic": 7706,
      "hitler": 7707,
      "##ser": 7708,
      "clouds": 7709,
      "mathematical": 7710,
      "quit": 7711,
      "defended": 7712,
      "oriented": 7713,
      "##heim": 7714,
      "fundamental": 7715,
      "hardware": 7716,
      "impressive": 7717,
      "equally": 7718,
      "convince": 7719,
      "confederate": 7720,
      "guilt": 7721,
      "chuck": 7722,
      "sliding": 7723,
      "##ware": 7724,
      "magnetic": 7725,
      "narrowed": 7726,
      "petersburg": 7727,
      "bulgaria": 7728,
      "otto": 7729,
      "phd": 7730,
      "skill": 7731,
      "##ama": 7732,
      "reader": 7733,
      "hopes": 7734,
      "pitcher": 7735,
      "reservoir": 7736,
      "hearts": 7737,
      "automatically": 7738,
      "expecting": 7739,
      "mysterious": 7740,
      "bennett": 7741,
      "extensively": 7742,
      "imagined": 7743,
      "seeds": 7744,
      "monitor": 7745,
      "fix": 7746,
      "##ative": 7747,
      "journalism": 7748,
      "struggling": 7749,
      "signature": 7750,
      "ranch": 7751,
      "encounter": 7752,
      "photographer": 7753,
      "observation": 7754,
      "protests": 7755,
      "##pin": 7756,
      "influences": 7757,
      "##hr": 7758,
      "calendar": 7759,
      "##all": 7760,
      "cruz": 7761,
      "croatia": 7762,
      "locomotive": 7763,
      "hughes": 7764,
      "naturally": 7765,
      "shakespeare": 7766,
      "basement": 7767,
      "hook": 7768,
      "uncredited": 7769,
      "faded": 7770,
      "theories": 7771,
      "approaches": 7772,
      "dare": 7773,
      "phillips": 7774,
      "filling": 7775,
      "fury": 7776,
      "obama": 7777,
      "##ain": 7778,
      "efficient": 7779,
      "arc": 7780,
      "deliver": 7781,
      "min": 7782,
      "raid": 7783,
      "breeding": 7784,
      "inducted": 7785,
      "leagues": 7786,
      "efficiency": 7787,
      "axis": 7788,
      "montana": 7789,
      "eagles": 7790,
      "##ked": 7791,
      "supplied": 7792,
      "instructions": 7793,
      "karen": 7794,
      "picking": 7795,
      "indicating": 7796,
      "trap": 7797,
      "anchor": 7798,
      "practically": 7799,
      "christians": 7800,
      "tomb": 7801,
      "vary": 7802,
      "occasional": 7803,
      "electronics": 7804,
      "lords": 7805,
      "readers": 7806,
      "newcastle": 7807,
      "faint": 7808,
      "innovation": 7809,
      "collect": 7810,
      "situations": 7811,
      "engagement": 7812,
      "160": 7813,
      "claude": 7814,
      "mixture": 7815,
      "##feld": 7816,
      "peer": 7817,
      "tissue": 7818,
      "logo": 7819,
      "lean": 7820,
      "##ration": 7821,
      "°f": 7822,
      "floors": 7823,
      "##ven": 7824,
      "architects": 7825,
      "reducing": 7826,
      "##our": 7827,
      "##ments": 7828,
      "rope": 7829,
      "1859": 7830,
      "ottawa": 7831,
      "##har": 7832,
      "samples": 7833,
      "banking": 7834,
      "declaration": 7835,
      "proteins": 7836,
      "resignation": 7837,
      "francois": 7838,
      "saudi": 7839,
      "advocate": 7840,
      "exhibited": 7841,
      "armor": 7842,
      "twins": 7843,
      "divorce": 7844,
      "##ras": 7845,
      "abraham": 7846,
      "reviewed": 7847,
      "jo": 7848,
      "temporarily": 7849,
      "matrix": 7850,
      "physically": 7851,
      "pulse": 7852,
      "curled": 7853,
      "##ena": 7854,
      "difficulties": 7855,
      "bengal": 7856,
      "usage": 7857,
      "##ban": 7858,
      "annie": 7859,
      "riders": 7860,
      "certificate": 7861,
      "##pi": 7862,
      "holes": 7863,
      "warsaw": 7864,
      "distinctive": 7865,
      "jessica": 7866,
      "##mon": 7867,
      "mutual": 7868,
      "1857": 7869,
      "customs": 7870,
      "circular": 7871,
      "eugene": 7872,
      "removal": 7873,
      "loaded": 7874,
      "mere": 7875,
      "vulnerable": 7876,
      "depicted": 7877,
      "generations": 7878,
      "dame": 7879,
      "heir": 7880,
      "enormous": 7881,
      "lightly": 7882,
      "climbing": 7883,
      "pitched": 7884,
      "lessons": 7885,
      "pilots": 7886,
      "nepal": 7887,
      "ram": 7888,
      "google": 7889,
      "preparing": 7890,
      "brad": 7891,
      "louise": 7892,
      "renowned": 7893,
      "##₂": 7894,
      "liam": 7895,
      "##ably": 7896,
      "plaza": 7897,
      "shaw": 7898,
      "sophie": 7899,
      "brilliant": 7900,
      "bills": 7901,
      "##bar": 7902,
      "##nik": 7903,
      "fucking": 7904,
      "mainland": 7905,
      "server": 7906,
      "pleasant": 7907,
      "seized": 7908,
      "veterans": 7909,
      "jerked": 7910,
      "fail": 7911,
      "beta": 7912,
      "brush": 7913,
      "radiation": 7914,
      "stored": 7915,
      "warmth": 7916,
      "southeastern": 7917,
      "nate": 7918,
      "sin": 7919,
      "raced": 7920,
      "berkeley": 7921,
      "joke": 7922,
      "athlete": 7923,
      "designation": 7924,
      "trunk": 7925,
      "##low": 7926,
      "roland": 7927,
      "qualification": 7928,
      "archives": 7929,
      "heels": 7930,
      "artwork": 7931,
      "receives": 7932,
      "judicial": 7933,
      "reserves": 7934,
      "##bed": 7935,
      "woke": 7936,
      "installation": 7937,
      "abu": 7938,
      "floating": 7939,
      "fake": 7940,
      "lesser": 7941,
      "excitement": 7942,
      "interface": 7943,
      "concentrated": 7944,
      "addressed": 7945,
      "characteristic": 7946,
      "amanda": 7947,
      "saxophone": 7948,
      "monk": 7949,
      "auto": 7950,
      "##bus": 7951,
      "releasing": 7952,
      "egg": 7953,
      "dies": 7954,
      "interaction": 7955,
      "defender": 7956,
      "ce": 7957,
      "outbreak": 7958,
      "glory": 7959,
      "loving": 7960,
      "##bert": 7961,
      "sequel": 7962,
      "consciousness": 7963,
      "http": 7964,
      "awake": 7965,
      "ski": 7966,
      "enrolled": 7967,
      "##ress": 7968,
      "handling": 7969,
      "rookie": 7970,
      "brow": 7971,
      "somebody": 7972,
      "biography": 7973,
      "warfare": 7974,
      "amounts": 7975,
      "contracts": 7976,
      "presentation": 7977,
      "fabric": 7978,
      "dissolved": 7979,
      "challenged": 7980,
      "meter": 7981,
      "psychological": 7982,
      "lt": 7983,
      "elevated": 7984,
      "rally": 7985,
      "accurate": 7986,
      "##tha": 7987,
      "hospitals": 7988,
      "undergraduate": 7989,
      "specialist": 7990,
      "venezuela": 7991,
      "exhibit": 7992,
      "shed": 7993,
      "nursing": 7994,
      "protestant": 7995,
      "fluid": 7996,
      "structural": 7997,
      "footage": 7998,
      "jared": 7999,
      "consistent": 8000,
      "prey": 8001,
      "##ska": 8002,
      "succession": 8003,
      "reflect": 8004,
      "exile": 8005,
      "lebanon": 8006,
      "wiped": 8007,
      "suspect": 8008,
      "shanghai": 8009,
      "resting": 8010,
      "integration": 8011,
      "preservation": 8012,
      "marvel": 8013,
      "variant": 8014,
      "pirates": 8015,
      "sheep": 8016,
      "rounded": 8017,
      "capita": 8018,
      "sailing": 8019,
      "colonies": 8020,
      "manuscript": 8021,
      "deemed": 8022,
      "variations": 8023,
      "clarke": 8024,
      "functional": 8025,
      "emerging": 8026,
      "boxing": 8027,
      "relaxed": 8028,
      "curse": 8029,
      "azerbaijan": 8030,
      "heavyweight": 8031,
      "nickname": 8032,
      "editorial": 8033,
      "rang": 8034,
      "grid": 8035,
      "tightened": 8036,
      "earthquake": 8037,
      "flashed": 8038,
      "miguel": 8039,
      "rushing": 8040,
      "##ches": 8041,
      "improvements": 8042,
      "boxes": 8043,
      "brooks": 8044,
      "180": 8045,
      "consumption": 8046,
      "molecular": 8047,
      "felix": 8048,
      "societies": 8049,
      "repeatedly": 8050,
      "variation": 8051,
      "aids": 8052,
      "civic": 8053,
      "graphics": 8054,
      "professionals": 8055,
      "realm": 8056,
      "autonomous": 8057,
      "receiver": 8058,
      "delayed": 8059,
      "workshop": 8060,
      "militia": 8061,
      "chairs": 8062,
      "trump": 8063,
      "canyon": 8064,
      "##point": 8065,
      "harsh": 8066,
      "extending": 8067,
      "lovely": 8068,
      "happiness": 8069,
      "##jan": 8070,
      "stake": 8071,
      "eyebrows": 8072,
      "embassy": 8073,
      "wellington": 8074,
      "hannah": 8075,
      "##ella": 8076,
      "sony": 8077,
      "corners": 8078,
      "bishops": 8079,
      "swear": 8080,
      "cloth": 8081,
      "contents": 8082,
      "xi": 8083,
      "namely": 8084,
      "commenced": 8085,
      "1854": 8086,
      "stanford": 8087,
      "nashville": 8088,
      "courage": 8089,
      "graphic": 8090,
      "commitment": 8091,
      "garrison": 8092,
      "##bin": 8093,
      "hamlet": 8094,
      "clearing": 8095,
      "rebels": 8096,
      "attraction": 8097,
      "literacy": 8098,
      "cooking": 8099,
      "ruins": 8100,
      "temples": 8101,
      "jenny": 8102,
      "humanity": 8103,
      "celebrate": 8104,
      "hasn": 8105,
      "freight": 8106,
      "sixty": 8107,
      "rebel": 8108,
      "bastard": 8109,
      "##art": 8110,
      "newton": 8111,
      "##ada": 8112,
      "deer": 8113,
      "##ges": 8114,
      "##ching": 8115,
      "smiles": 8116,
      "delaware": 8117,
      "singers": 8118,
      "##ets": 8119,
      "approaching": 8120,
      "assists": 8121,
      "flame": 8122,
      "##ph": 8123,
      "boulevard": 8124,
      "barrel": 8125,
      "planted": 8126,
      "##ome": 8127,
      "pursuit": 8128,
      "##sia": 8129,
      "consequences": 8130,
      "posts": 8131,
      "shallow": 8132,
      "invitation": 8133,
      "rode": 8134,
      "depot": 8135,
      "ernest": 8136,
      "kane": 8137,
      "rod": 8138,
      "concepts": 8139,
      "preston": 8140,
      "topic": 8141,
      "chambers": 8142,
      "striking": 8143,
      "blast": 8144,
      "arrives": 8145,
      "descendants": 8146,
      "montgomery": 8147,
      "ranges": 8148,
      "worlds": 8149,
      "##lay": 8150,
      "##ari": 8151,
      "span": 8152,
      "chaos": 8153,
      "praise": 8154,
      "##ag": 8155,
      "fewer": 8156,
      "1855": 8157,
      "sanctuary": 8158,
      "mud": 8159,
      "fbi": 8160,
      "##ions": 8161,
      "programmes": 8162,
      "maintaining": 8163,
      "unity": 8164,
      "harper": 8165,
      "bore": 8166,
      "handsome": 8167,
      "closure": 8168,
      "tournaments": 8169,
      "thunder": 8170,
      "nebraska": 8171,
      "linda": 8172,
      "facade": 8173,
      "puts": 8174,
      "satisfied": 8175,
      "argentine": 8176,
      "dale": 8177,
      "cork": 8178,
      "dome": 8179,
      "panama": 8180,
      "##yl": 8181,
      "1858": 8182,
      "tasks": 8183,
      "experts": 8184,
      "##ates": 8185,
      "feeding": 8186,
      "equation": 8187,
      "##las": 8188,
      "##ida": 8189,
      "##tu": 8190,
      "engage": 8191,
      "bryan": 8192,
      "##ax": 8193,
      "um": 8194,
      "quartet": 8195,
      "melody": 8196,
      "disbanded": 8197,
      "sheffield": 8198,
      "blocked": 8199,
      "gasped": 8200,
      "delay": 8201,
      "kisses": 8202,
      "maggie": 8203,
      "connects": 8204,
      "##non": 8205,
      "sts": 8206,
      "poured": 8207,
      "creator": 8208,
      "publishers": 8209,
      "##we": 8210,
      "guided": 8211,
      "ellis": 8212,
      "extinct": 8213,
      "hug": 8214,
      "gaining": 8215,
      "##ord": 8216,
      "complicated": 8217,
      "##bility": 8218,
      "poll": 8219,
      "clenched": 8220,
      "investigate": 8221,
      "##use": 8222,
      "thereby": 8223,
      "quantum": 8224,
      "spine": 8225,
      "cdp": 8226,
      "humor": 8227,
      "kills": 8228,
      "administered": 8229,
      "semifinals": 8230,
      "##du": 8231,
      "encountered": 8232,
      "ignore": 8233,
      "##bu": 8234,
      "commentary": 8235,
      "##maker": 8236,
      "bother": 8237,
      "roosevelt": 8238,
      "140": 8239,
      "plains": 8240,
      "halfway": 8241,
      "flowing": 8242,
      "cultures": 8243,
      "crack": 8244,
      "imprisoned": 8245,
      "neighboring": 8246,
      "airline": 8247,
      "##ses": 8248,
      "##view": 8249,
      "##mate": 8250,
      "##ec": 8251,
      "gather": 8252,
      "wolves": 8253,
      "marathon": 8254,
      "transformed": 8255,
      "##ill": 8256,
      "cruise": 8257,
      "organisations": 8258,
      "carol": 8259,
      "punch": 8260,
      "exhibitions": 8261,
      "numbered": 8262,
      "alarm": 8263,
      "ratings": 8264,
      "daddy": 8265,
      "silently": 8266,
      "##stein": 8267,
      "queens": 8268,
      "colours": 8269,
      "impression": 8270,
      "guidance": 8271,
      "liu": 8272,
      "tactical": 8273,
      "##rat": 8274,
      "marshal": 8275,
      "della": 8276,
      "arrow": 8277,
      "##ings": 8278,
      "rested": 8279,
      "feared": 8280,
      "tender": 8281,
      "owns": 8282,
      "bitter": 8283,
      "advisor": 8284,
      "escort": 8285,
      "##ides": 8286,
      "spare": 8287,
      "farms": 8288,
      "grants": 8289,
      "##ene": 8290,
      "dragons": 8291,
      "encourage": 8292,
      "colleagues": 8293,
      "cameras": 8294,
      "##und": 8295,
      "sucked": 8296,
      "pile": 8297,
      "spirits": 8298,
      "prague": 8299,
      "statements": 8300,
      "suspension": 8301,
      "landmark": 8302,
      "fence": 8303,
      "torture": 8304,
      "recreation": 8305,
      "bags": 8306,
      "permanently": 8307,
      "survivors": 8308,
      "pond": 8309,
      "spy": 8310,
      "predecessor": 8311,
      "bombing": 8312,
      "coup": 8313,
      "##og": 8314,
      "protecting": 8315,
      "transformation": 8316,
      "glow": 8317,
      "##lands": 8318,
      "##book": 8319,
      "dug": 8320,
      "priests": 8321,
      "andrea": 8322,
      "feat": 8323,
      "barn": 8324,
      "jumping": 8325,
      "##chen": 8326,
      "##ologist": 8327,
      "##con": 8328,
      "casualties": 8329,
      "stern": 8330,
      "auckland": 8331,
      "pipe": 8332,
      "serie": 8333,
      "revealing": 8334,
      "ba": 8335,
      "##bel": 8336,
      "trevor": 8337,
      "mercy": 8338,
      "spectrum": 8339,
      "yang": 8340,
      "consist": 8341,
      "governing": 8342,
      "collaborated": 8343,
      "possessed": 8344,
      "epic": 8345,
      "comprises": 8346,
      "blew": 8347,
      "shane": 8348,
      "##ack": 8349,
      "lopez": 8350,
      "honored": 8351,
      "magical": 8352,
      "sacrifice": 8353,
      "judgment": 8354,
      "perceived": 8355,
      "hammer": 8356,
      "mtv": 8357,
      "baronet": 8358,
      "tune": 8359,
      "das": 8360,
      "missionary": 8361,
      "sheets": 8362,
      "350": 8363,
      "neutral": 8364,
      "oral": 8365,
      "threatening": 8366,
      "attractive": 8367,
      "shade": 8368,
      "aims": 8369,
      "seminary": 8370,
      "##master": 8371,
      "estates": 8372,
      "1856": 8373,
      "michel": 8374,
      "wounds": 8375,
      "refugees": 8376,
      "manufacturers": 8377,
      "##nic": 8378,
      "mercury": 8379,
      "syndrome": 8380,
      "porter": 8381,
      "##iya": 8382,
      "##din": 8383,
      "hamburg": 8384,
      "identification": 8385,
      "upstairs": 8386,
      "purse": 8387,
      "widened": 8388,
      "pause": 8389,
      "cared": 8390,
      "breathed": 8391,
      "affiliate": 8392,
      "santiago": 8393,
      "prevented": 8394,
      "celtic": 8395,
      "fisher": 8396,
      "125": 8397,
      "recruited": 8398,
      "byzantine": 8399,
      "reconstruction": 8400,
      "farther": 8401,
      "##mp": 8402,
      "diet": 8403,
      "sake": 8404,
      "au": 8405,
      "spite": 8406,
      "sensation": 8407,
      "##ert": 8408,
      "blank": 8409,
      "separation": 8410,
      "105": 8411,
      "##hon": 8412,
      "vladimir": 8413,
      "armies": 8414,
      "anime": 8415,
      "##lie": 8416,
      "accommodate": 8417,
      "orbit": 8418,
      "cult": 8419,
      "sofia": 8420,
      "archive": 8421,
      "##ify": 8422,
      "##box": 8423,
      "founders": 8424,
      "sustained": 8425,
      "disorder": 8426,
      "honours": 8427,
      "northeastern": 8428,
      "mia": 8429,
      "crops": 8430,
      "violet": 8431,
      "threats": 8432,
      "blanket": 8433,
      "fires": 8434,
      "canton": 8435,
      "followers": 8436,
      "southwestern": 8437,
      "prototype": 8438,
      "voyage": 8439,
      "assignment": 8440,
      "altered": 8441,
      "moderate": 8442,
      "protocol": 8443,
      "pistol": 8444,
      "##eo": 8445,
      "questioned": 8446,
      "brass": 8447,
      "lifting": 8448,
      "1852": 8449,
      "math": 8450,
      "authored": 8451,
      "##ual": 8452,
      "doug": 8453,
      "dimensional": 8454,
      "dynamic": 8455,
      "##san": 8456,
      "1851": 8457,
      "pronounced": 8458,
      "grateful": 8459,
      "quest": 8460,
      "uncomfortable": 8461,
      "boom": 8462,
      "presidency": 8463,
      "stevens": 8464,
      "relating": 8465,
      "politicians": 8466,
      "chen": 8467,
      "barrier": 8468,
      "quinn": 8469,
      "diana": 8470,
      "mosque": 8471,
      "tribal": 8472,
      "cheese": 8473,
      "palmer": 8474,
      "portions": 8475,
      "sometime": 8476,
      "chester": 8477,
      "treasure": 8478,
      "wu": 8479,
      "bend": 8480,
      "download": 8481,
      "millions": 8482,
      "reforms": 8483,
      "registration": 8484,
      "##osa": 8485,
      "consequently": 8486,
      "monitoring": 8487,
      "ate": 8488,
      "preliminary": 8489,
      "brandon": 8490,
      "invented": 8491,
      "ps": 8492,
      "eaten": 8493,
      "exterior": 8494,
      "intervention": 8495,
      "ports": 8496,
      "documented": 8497,
      "log": 8498,
      "displays": 8499,
      "lecture": 8500,
      "sally": 8501,
      "favourite": 8502,
      "##itz": 8503,
      "vermont": 8504,
      "lo": 8505,
      "invisible": 8506,
      "isle": 8507,
      "breed": 8508,
      "##ator": 8509,
      "journalists": 8510,
      "relay": 8511,
      "speaks": 8512,
      "backward": 8513,
      "explore": 8514,
      "midfielder": 8515,
      "actively": 8516,
      "stefan": 8517,
      "procedures": 8518,
      "cannon": 8519,
      "blond": 8520,
      "kenneth": 8521,
      "centered": 8522,
      "servants": 8523,
      "chains": 8524,
      "libraries": 8525,
      "malcolm": 8526,
      "essex": 8527,
      "henri": 8528,
      "slavery": 8529,
      "##hal": 8530,
      "facts": 8531,
      "fairy": 8532,
      "coached": 8533,
      "cassie": 8534,
      "cats": 8535,
      "washed": 8536,
      "cop": 8537,
      "##fi": 8538,
      "announcement": 8539,
      "item": 8540,
      "2000s": 8541,
      "vinyl": 8542,
      "activated": 8543,
      "marco": 8544,
      "frontier": 8545,
      "growled": 8546,
      "curriculum": 8547,
      "##das": 8548,
      "loyal": 8549,
      "accomplished": 8550,
      "leslie": 8551,
      "ritual": 8552,
      "kenny": 8553,
      "##00": 8554,
      "vii": 8555,
      "napoleon": 8556,
      "hollow": 8557,
      "hybrid": 8558,
      "jungle": 8559,
      "stationed": 8560,
      "friedrich": 8561,
      "counted": 8562,
      "##ulated": 8563,
      "platinum": 8564,
      "theatrical": 8565,
      "seated": 8566,
      "col": 8567,
      "rubber": 8568,
      "glen": 8569,
      "1840": 8570,
      "diversity": 8571,
      "healing": 8572,
      "extends": 8573,
      "id": 8574,
      "provisions": 8575,
      "administrator": 8576,
      "columbus": 8577,
      "##oe": 8578,
      "tributary": 8579,
      "te": 8580,
      "assured": 8581,
      "org": 8582,
      "##uous": 8583,
      "prestigious": 8584,
      "examined": 8585,
      "lectures": 8586,
      "grammy": 8587,
      "ronald": 8588,
      "associations": 8589,
      "bailey": 8590,
      "allan": 8591,
      "essays": 8592,
      "flute": 8593,
      "believing": 8594,
      "consultant": 8595,
      "proceedings": 8596,
      "travelling": 8597,
      "1853": 8598,
      "kit": 8599,
      "kerala": 8600,
      "yugoslavia": 8601,
      "buddy": 8602,
      "methodist": 8603,
      "##ith": 8604,
      "burial": 8605,
      "centres": 8606,
      "batman": 8607,
      "##nda": 8608,
      "discontinued": 8609,
      "bo": 8610,
      "dock": 8611,
      "stockholm": 8612,
      "lungs": 8613,
      "severely": 8614,
      "##nk": 8615,
      "citing": 8616,
      "manga": 8617,
      "##ugh": 8618,
      "steal": 8619,
      "mumbai": 8620,
      "iraqi": 8621,
      "robot": 8622,
      "celebrity": 8623,
      "bride": 8624,
      "broadcasts": 8625,
      "abolished": 8626,
      "pot": 8627,
      "joel": 8628,
      "overhead": 8629,
      "franz": 8630,
      "packed": 8631,
      "reconnaissance": 8632,
      "johann": 8633,
      "acknowledged": 8634,
      "introduce": 8635,
      "handled": 8636,
      "doctorate": 8637,
      "developments": 8638,
      "drinks": 8639,
      "alley": 8640,
      "palestine": 8641,
      "##nis": 8642,
      "##aki": 8643,
      "proceeded": 8644,
      "recover": 8645,
      "bradley": 8646,
      "grain": 8647,
      "patch": 8648,
      "afford": 8649,
      "infection": 8650,
      "nationalist": 8651,
      "legendary": 8652,
      "##ath": 8653,
      "interchange": 8654,
      "virtually": 8655,
      "gen": 8656,
      "gravity": 8657,
      "exploration": 8658,
      "amber": 8659,
      "vital": 8660,
      "wishes": 8661,
      "powell": 8662,
      "doctrine": 8663,
      "elbow": 8664,
      "screenplay": 8665,
      "##bird": 8666,
      "contribute": 8667,
      "indonesian": 8668,
      "pet": 8669,
      "creates": 8670,
      "##com": 8671,
      "enzyme": 8672,
      "kylie": 8673,
      "discipline": 8674,
      "drops": 8675,
      "manila": 8676,
      "hunger": 8677,
      "##ien": 8678,
      "layers": 8679,
      "suffer": 8680,
      "fever": 8681,
      "bits": 8682,
      "monica": 8683,
      "keyboard": 8684,
      "manages": 8685,
      "##hood": 8686,
      "searched": 8687,
      "appeals": 8688,
      "##bad": 8689,
      "testament": 8690,
      "grande": 8691,
      "reid": 8692,
      "##war": 8693,
      "beliefs": 8694,
      "congo": 8695,
      "##ification": 8696,
      "##dia": 8697,
      "si": 8698,
      "requiring": 8699,
      "##via": 8700,
      "casey": 8701,
      "1849": 8702,
      "regret": 8703,
      "streak": 8704,
      "rape": 8705,
      "depends": 8706,
      "syrian": 8707,
      "sprint": 8708,
      "pound": 8709,
      "tourists": 8710,
      "upcoming": 8711,
      "pub": 8712,
      "##xi": 8713,
      "tense": 8714,
      "##els": 8715,
      "practiced": 8716,
      "echo": 8717,
      "nationwide": 8718,
      "guild": 8719,
      "motorcycle": 8720,
      "liz": 8721,
      "##zar": 8722,
      "chiefs": 8723,
      "desired": 8724,
      "elena": 8725,
      "bye": 8726,
      "precious": 8727,
      "absorbed": 8728,
      "relatives": 8729,
      "booth": 8730,
      "pianist": 8731,
      "##mal": 8732,
      "citizenship": 8733,
      "exhausted": 8734,
      "wilhelm": 8735,
      "##ceae": 8736,
      "##hed": 8737,
      "noting": 8738,
      "quarterback": 8739,
      "urge": 8740,
      "hectares": 8741,
      "##gue": 8742,
      "ace": 8743,
      "holly": 8744,
      "##tal": 8745,
      "blonde": 8746,
      "davies": 8747,
      "parked": 8748,
      "sustainable": 8749,
      "stepping": 8750,
      "twentieth": 8751,
      "airfield": 8752,
      "galaxy": 8753,
      "nest": 8754,
      "chip": 8755,
      "##nell": 8756,
      "tan": 8757,
      "shaft": 8758,
      "paulo": 8759,
      "requirement": 8760,
      "##zy": 8761,
      "paradise": 8762,
      "tobacco": 8763,
      "trans": 8764,
      "renewed": 8765,
      "vietnamese": 8766,
      "##cker": 8767,
      "##ju": 8768,
      "suggesting": 8769,
      "catching": 8770,
      "holmes": 8771,
      "enjoying": 8772,
      "md": 8773,
      "trips": 8774,
      "colt": 8775,
      "holder": 8776,
      "butterfly": 8777,
      "nerve": 8778,
      "reformed": 8779,
      "cherry": 8780,
      "bowling": 8781,
      "trailer": 8782,
      "carriage": 8783,
      "goodbye": 8784,
      "appreciate": 8785,
      "toy": 8786,
      "joshua": 8787,
      "interactive": 8788,
      "enabled": 8789,
      "involve": 8790,
      "##kan": 8791,
      "collar": 8792,
      "determination": 8793,
      "bunch": 8794,
      "facebook": 8795,
      "recall": 8796,
      "shorts": 8797,
      "superintendent": 8798,
      "episcopal": 8799,
      "frustration": 8800,
      "giovanni": 8801,
      "nineteenth": 8802,
      "laser": 8803,
      "privately": 8804,
      "array": 8805,
      "circulation": 8806,
      "##ovic": 8807,
      "armstrong": 8808,
      "deals": 8809,
      "painful": 8810,
      "permit": 8811,
      "discrimination": 8812,
      "##wi": 8813,
      "aires": 8814,
      "retiring": 8815,
      "cottage": 8816,
      "ni": 8817,
      "##sta": 8818,
      "horizon": 8819,
      "ellen": 8820,
      "jamaica": 8821,
      "ripped": 8822,
      "fernando": 8823,
      "chapters": 8824,
      "playstation": 8825,
      "patron": 8826,
      "lecturer": 8827,
      "navigation": 8828,
      "behaviour": 8829,
      "genes": 8830,
      "georgian": 8831,
      "export": 8832,
      "solomon": 8833,
      "rivals": 8834,
      "swift": 8835,
      "seventeen": 8836,
      "rodriguez": 8837,
      "princeton": 8838,
      "independently": 8839,
      "sox": 8840,
      "1847": 8841,
      "arguing": 8842,
      "entity": 8843,
      "casting": 8844,
      "hank": 8845,
      "criteria": 8846,
      "oakland": 8847,
      "geographic": 8848,
      "milwaukee": 8849,
      "reflection": 8850,
      "expanding": 8851,
      "conquest": 8852,
      "dubbed": 8853,
      "##tv": 8854,
      "halt": 8855,
      "brave": 8856,
      "brunswick": 8857,
      "doi": 8858,
      "arched": 8859,
      "curtis": 8860,
      "divorced": 8861,
      "predominantly": 8862,
      "somerset": 8863,
      "streams": 8864,
      "ugly": 8865,
      "zoo": 8866,
      "horrible": 8867,
[...]
